unsigned char bottle_can_simple_cnn_mps_tflite[] = {
  0x1c, 0x00, 0x00, 0x00, 0x54, 0x46, 0x4c, 0x33, 0x14, 0x00, 0x20, 0x00,
  0x1c, 0x00, 0x18, 0x00, 0x14, 0x00, 0x10, 0x00, 0x0c, 0x00, 0x00, 0x00,
  0x08, 0x00, 0x04, 0x00, 0x14, 0x00, 0x00, 0x00, 0x1c, 0x00, 0x00, 0x00,
  0x84, 0x00, 0x00, 0x00, 0xdc, 0x00, 0x00, 0x00, 0x44, 0x2c, 0x00, 0x00,
  0x54, 0x2c, 0x00, 0x00, 0x88, 0x38, 0x00, 0x00, 0x03, 0x00, 0x00, 0x00,
  0x01, 0x00, 0x00, 0x00, 0x04, 0x00, 0x00, 0x00, 0x86, 0xd2, 0xff, 0xff,
  0x0c, 0x00, 0x00, 0x00, 0x1c, 0x00, 0x00, 0x00, 0x3c, 0x00, 0x00, 0x00,
  0x0f, 0x00, 0x00, 0x00, 0x73, 0x65, 0x72, 0x76, 0x69, 0x6e, 0x67, 0x5f,
  0x64, 0x65, 0x66, 0x61, 0x75, 0x6c, 0x74, 0x00, 0x01, 0x00, 0x00, 0x00,
  0x04, 0x00, 0x00, 0x00, 0x98, 0xff, 0xff, 0xff, 0x13, 0x00, 0x00, 0x00,
  0x04, 0x00, 0x00, 0x00, 0x08, 0x00, 0x00, 0x00, 0x6f, 0x75, 0x74, 0x70,
  0x75, 0x74, 0x5f, 0x30, 0x00, 0x00, 0x00, 0x00, 0x01, 0x00, 0x00, 0x00,
  0x04, 0x00, 0x00, 0x00, 0x92, 0xd3, 0xff, 0xff, 0x04, 0x00, 0x00, 0x00,
  0x05, 0x00, 0x00, 0x00, 0x69, 0x6e, 0x70, 0x75, 0x74, 0x00, 0x00, 0x00,
  0x02, 0x00, 0x00, 0x00, 0x34, 0x00, 0x00, 0x00, 0x04, 0x00, 0x00, 0x00,
  0xdc, 0xff, 0xff, 0xff, 0x16, 0x00, 0x00, 0x00, 0x04, 0x00, 0x00, 0x00,
  0x13, 0x00, 0x00, 0x00, 0x43, 0x4f, 0x4e, 0x56, 0x45, 0x52, 0x53, 0x49,
  0x4f, 0x4e, 0x5f, 0x4d, 0x45, 0x54, 0x41, 0x44, 0x41, 0x54, 0x41, 0x00,
  0x08, 0x00, 0x0c, 0x00, 0x08, 0x00, 0x04, 0x00, 0x08, 0x00, 0x00, 0x00,
  0x15, 0x00, 0x00, 0x00, 0x04, 0x00, 0x00, 0x00, 0x13, 0x00, 0x00, 0x00,
  0x6d, 0x69, 0x6e, 0x5f, 0x72, 0x75, 0x6e, 0x74, 0x69, 0x6d, 0x65, 0x5f,
  0x76, 0x65, 0x72, 0x73, 0x69, 0x6f, 0x6e, 0x00, 0x17, 0x00, 0x00, 0x00,
  0x64, 0x2b, 0x00, 0x00, 0x5c, 0x2b, 0x00, 0x00, 0x2c, 0x2b, 0x00, 0x00,
  0xbc, 0x27, 0x00, 0x00, 0x9c, 0x27, 0x00, 0x00, 0x84, 0x27, 0x00, 0x00,
  0xf4, 0x26, 0x00, 0x00, 0xdc, 0x26, 0x00, 0x00, 0xcc, 0x25, 0x00, 0x00,
  0x7c, 0x25, 0x00, 0x00, 0xec, 0x20, 0x00, 0x00, 0xdc, 0x00, 0x00, 0x00,
  0xd4, 0x00, 0x00, 0x00, 0xcc, 0x00, 0x00, 0x00, 0xc4, 0x00, 0x00, 0x00,
  0xbc, 0x00, 0x00, 0x00, 0xb4, 0x00, 0x00, 0x00, 0xac, 0x00, 0x00, 0x00,
  0xa4, 0x00, 0x00, 0x00, 0x9c, 0x00, 0x00, 0x00, 0x94, 0x00, 0x00, 0x00,
  0x74, 0x00, 0x00, 0x00, 0x04, 0x00, 0x00, 0x00, 0x62, 0xd4, 0xff, 0xff,
  0x04, 0x00, 0x00, 0x00, 0x60, 0x00, 0x00, 0x00, 0x0c, 0x00, 0x00, 0x00,
  0x08, 0x00, 0x0e, 0x00, 0x08, 0x00, 0x04, 0x00, 0x08, 0x00, 0x00, 0x00,
  0x10, 0x00, 0x00, 0x00, 0x28, 0x00, 0x00, 0x00, 0x00, 0x00, 0x06, 0x00,
  0x08, 0x00, 0x04, 0x00, 0x06, 0x00, 0x00, 0x00, 0x04, 0x00, 0x00, 0x00,
  0x01, 0x00, 0x00, 0x00, 0xea, 0x03, 0x00, 0x00, 0x0c, 0x00, 0x18, 0x00,
  0x14, 0x00, 0x10, 0x00, 0x0c, 0x00, 0x04, 0x00, 0x0c, 0x00, 0x00, 0x00,
  0x03, 0x81, 0x58, 0xa2, 0xa6, 0x77, 0xf7, 0xf6, 0x01, 0x00, 0x00, 0x00,
  0x02, 0x00, 0x00, 0x00, 0x04, 0x00, 0x00, 0x00, 0x06, 0x00, 0x00, 0x00,
  0x32, 0x2e, 0x31, 0x38, 0x2e, 0x30, 0x00, 0x00, 0xce, 0xd4, 0xff, 0xff,
  0x04, 0x00, 0x00, 0x00, 0x10, 0x00, 0x00, 0x00, 0x32, 0x2e, 0x31, 0x37,
  0x2e, 0x30, 0x00, 0x00, 0x00, 0x00, 0x00, 0x00, 0x00, 0x00, 0x00, 0x00,
  0x68, 0xc9, 0xff, 0xff, 0x6c, 0xc9, 0xff, 0xff, 0x70, 0xc9, 0xff, 0xff,
  0x74, 0xc9, 0xff, 0xff, 0x78, 0xc9, 0xff, 0xff, 0x7c, 0xc9, 0xff, 0xff,
  0x80, 0xc9, 0xff, 0xff, 0x84, 0xc9, 0xff, 0xff, 0x88, 0xc9, 0xff, 0xff,
  0x0e, 0xd5, 0xff, 0xff, 0x04, 0x00, 0x00, 0x00, 0x00, 0x20, 0x00, 0x00,
  0xfa, 0xd7, 0xe4, 0xef, 0xff, 0x12, 0xd8, 0xf2, 0xd4, 0xf9, 0xea, 0xed,
  0xe2, 0xf9, 0xeb, 0xfb, 0xfb, 0x14, 0x49, 0x1e, 0x17, 0x38, 0x6c, 0x20,
  0xfd, 0x0a, 0x01, 0x06, 0x01, 0x08, 0xd1, 0x0f, 0xf4, 0xf1, 0xfd, 0xfe,
  0x16, 0x21, 0x33, 0xe8, 0x03, 0xf2, 0x0e, 0xfc, 0x35, 0xe6, 0xec, 0x1d,
  0xf2, 0x14, 0x31, 0x0d, 0xed, 0x06, 0xe2, 0x17, 0x00, 0xd4, 0x81, 0xff,
  0x1e, 0x2b, 0x1e, 0x01, 0x08, 0x55, 0x44, 0xff, 0xf6, 0x1c, 0x75, 0x06,
  0xdb, 0x1c, 0x47, 0xcd, 0xf7, 0xd0, 0xe6, 0xe8, 0xec, 0x05, 0xc5, 0xf6,
  0x04, 0x0f, 0xea, 0xe6, 0xf5, 0x1d, 0xee, 0xfc, 0xfc, 0x2f, 0x19, 0x21,
  0xf8, 0xe3, 0xd6, 0xf0, 0x1d, 0xc1, 0xb8, 0xd9, 0x0e, 0x5a, 0x42, 0x34,
  0x15, 0x6e, 0x79, 0x11, 0x04, 0xef, 0xda, 0xf1, 0x1f, 0x24, 0x11, 0xdf,
  0x01, 0xfd, 0x01, 0xd7, 0x07, 0xf2, 0xf8, 0xf1, 0xec, 0x10, 0x0f, 0x03,
  0xf1, 0x30, 0x5e, 0xec, 0x1b, 0xd3, 0xe0, 0xdb, 0x0c, 0x03, 0xfd, 0x06,
  0x03, 0xef, 0x01, 0x08, 0xec, 0xe1, 0x14, 0xf3, 0xfe, 0x02, 0x1b, 0xfc,
  0x03, 0x0d, 0xda, 0xea, 0x1f, 0xd9, 0xfd, 0x02, 0x0d, 0xf5, 0x24, 0x0e,
  0x1f, 0x33, 0xff, 0x21, 0x05, 0xfb, 0xea, 0xf8, 0x34, 0x10, 0x0e, 0x08,
  0x33, 0x0b, 0xff, 0xe8, 0x06, 0x38, 0x0b, 0x04, 0xeb, 0xd7, 0xe6, 0x1b,
  0x04, 0xd7, 0x02, 0x0b, 0x10, 0xad, 0xca, 0x06, 0xc9, 0xcd, 0x00, 0xe3,
  0x1c, 0x26, 0x22, 0x20, 0xf9, 0x0b, 0x0b, 0x24, 0x01, 0x43, 0x3c, 0x09,
  0x09, 0xdd, 0xd5, 0xfe, 0x28, 0xe9, 0xf2, 0x0e, 0xfe, 0xef, 0x15, 0x0d,
  0xfb, 0xf9, 0xf5, 0x1e, 0x1f, 0x26, 0x7a, 0x23, 0x16, 0xf6, 0x2a, 0x02,
  0x06, 0xe6, 0x04, 0x17, 0x05, 0xf4, 0x1e, 0x4e, 0xea, 0x21, 0xfa, 0xf4,
  0x18, 0x09, 0xe5, 0xfe, 0xd0, 0xf4, 0xf5, 0x09, 0xd6, 0x07, 0x15, 0x0a,
  0xd8, 0x14, 0x3b, 0x11, 0xf2, 0x04, 0x05, 0xec, 0x32, 0x00, 0xc0, 0xe3,
  0xec, 0x9b, 0x81, 0xf9, 0x42, 0xeb, 0xf8, 0xf4, 0x12, 0x25, 0x4b, 0xf1,
  0x09, 0x18, 0x16, 0xe9, 0xe3, 0x0d, 0xf4, 0xf4, 0xfe, 0x1b, 0x22, 0xe8,
  0xfb, 0x35, 0x04, 0x04, 0xef, 0x03, 0x05, 0x16, 0x13, 0x00, 0x3b, 0x0c,
  0x15, 0x31, 0x76, 0x0d, 0x03, 0xf1, 0xeb, 0x16, 0xfb, 0xc0, 0xc6, 0x03,
  0xf9, 0xdb, 0x9e, 0xf0, 0x23, 0xff, 0xc5, 0x07, 0x13, 0x0f, 0xe6, 0xfc,
  0x09, 0x20, 0x30, 0xe4, 0x12, 0xdd, 0x0b, 0xff, 0x02, 0x00, 0x22, 0x02,
  0xf8, 0xf0, 0x09, 0xf7, 0xf7, 0xf9, 0x14, 0x0f, 0x08, 0x36, 0x59, 0x10,
  0xf5, 0xc6, 0xf6, 0xf7, 0xed, 0xa6, 0xd1, 0xfe, 0xf1, 0xe1, 0x22, 0xe5,
  0xe4, 0xe2, 0xfa, 0x01, 0xe5, 0xf2, 0x1b, 0x09, 0xd4, 0xcc, 0x0e, 0x21,
  0x0f, 0xdd, 0xcd, 0x15, 0x2c, 0x1d, 0xc5, 0x01, 0xe6, 0x33, 0xf9, 0x26,
  0x02, 0x25, 0xfa, 0x10, 0x0c, 0x03, 0x45, 0xf8, 0xfa, 0x12, 0x32, 0x06,
  0x0c, 0xfa, 0x06, 0x2b, 0xf0, 0x0c, 0x2e, 0x0c, 0xfb, 0x0f, 0xfa, 0xdd,
  0x09, 0x13, 0x0d, 0xf8, 0x13, 0xdb, 0x04, 0x0e, 0x0d, 0x16, 0x09, 0x02,
  0x04, 0x00, 0x23, 0xff, 0xbf, 0x09, 0xfc, 0x13, 0xed, 0xd0, 0x0d, 0x02,
  0x17, 0x3a, 0x47, 0xfd, 0xfd, 0x0f, 0xf4, 0xf4, 0xdb, 0x6c, 0x0d, 0x0a,
  0x33, 0x1b, 0x07, 0x0d, 0xfd, 0xf2, 0xe6, 0xe0, 0xff, 0x2c, 0x14, 0x03,
  0xff, 0xcb, 0xe4, 0xfb, 0x1f, 0x1e, 0x44, 0x19, 0x0f, 0x2b, 0x12, 0xf9,
  0x0b, 0x1c, 0x03, 0x13, 0x26, 0x0e, 0x30, 0xf3, 0xf3, 0xfa, 0xa4, 0xd1,
  0x32, 0x21, 0xde, 0xff, 0xfb, 0x48, 0xf2, 0xf4, 0x0b, 0x36, 0xfb, 0xda,
  0x23, 0xda, 0xe1, 0xde, 0x18, 0x06, 0x11, 0xe0, 0x30, 0xf6, 0x05, 0xfe,
  0x2d, 0x07, 0xf7, 0xf9, 0x1e, 0x06, 0xf1, 0xf9, 0x1d, 0x0f, 0xe9, 0x08,
  0xf7, 0x17, 0x34, 0x06, 0x22, 0x5c, 0x7f, 0x06, 0xd5, 0x03, 0x15, 0x20,
  0xf4, 0xf6, 0xe4, 0x1c, 0x09, 0x06, 0x0b, 0x02, 0x0e, 0x19, 0x1d, 0x0d,
  0xf8, 0xf2, 0xeb, 0xfb, 0x0b, 0xeb, 0xe7, 0x0f, 0x14, 0x14, 0x10, 0x0d,
  0x09, 0x00, 0xcc, 0x14, 0xec, 0xe4, 0xb6, 0x13, 0x0f, 0x39, 0x16, 0x0f,
  0x15, 0x59, 0x3c, 0xfd, 0x1f, 0x60, 0x75, 0x0c, 0xe6, 0x13, 0x5b, 0xea,
  0xf2, 0xf5, 0xfe, 0xf5, 0x14, 0xf9, 0xe4, 0x10, 0xfa, 0x22, 0xed, 0x05,
  0x0e, 0xf2, 0xf4, 0xfc, 0x07, 0x0d, 0x09, 0x10, 0xfa, 0x01, 0xef, 0xf4,
  0xf6, 0xc2, 0xd0, 0xe7, 0x13, 0x2d, 0x40, 0x1d, 0xfc, 0x51, 0x45, 0x0d,
  0x0b, 0xfe, 0xd6, 0x1d, 0x31, 0x14, 0xed, 0xe3, 0x1e, 0x01, 0xe9, 0x02,
  0x4c, 0x18, 0x0c, 0xfe, 0xfe, 0x18, 0x29, 0xf3, 0x07, 0xfb, 0x4b, 0xe0,
  0x2a, 0xca, 0x04, 0xea, 0x23, 0x05, 0xef, 0x19, 0x15, 0xf1, 0xdd, 0x04,
  0x04, 0xd9, 0xc6, 0x0d, 0x04, 0xfb, 0xf8, 0xf3, 0x0e, 0xe7, 0xc1, 0x04,
  0xf0, 0x01, 0xff, 0x04, 0x00, 0x0b, 0x1b, 0x10, 0xfa, 0x10, 0x19, 0x11,
  0xeb, 0x07, 0x14, 0xef, 0x08, 0x20, 0xf5, 0x05, 0x3b, 0x1e, 0x1b, 0xf3,
  0x1b, 0x2c, 0xea, 0xfa, 0x06, 0xd2, 0xe0, 0x09, 0xfa, 0xf3, 0xf9, 0x09,
  0x3b, 0xb8, 0xdf, 0x03, 0xea, 0xcf, 0xf3, 0x01, 0xf9, 0x1e, 0x1f, 0x20,
  0xf6, 0x16, 0xf3, 0x0b, 0x01, 0x4f, 0x2d, 0x10, 0x00, 0xe6, 0xcd, 0x0b,
  0x09, 0xfd, 0xeb, 0x0c, 0xf2, 0xe4, 0xf7, 0x00, 0xe6, 0xeb, 0xe1, 0x12,
  0x1a, 0x26, 0x64, 0x3c, 0xe3, 0xe4, 0x20, 0x15, 0x22, 0xcd, 0x0c, 0x1a,
  0x07, 0xf0, 0xff, 0x46, 0x03, 0x38, 0x18, 0x26, 0x0b, 0xfd, 0x0d, 0x20,
  0xcf, 0xec, 0xf9, 0x08, 0xdf, 0x16, 0x23, 0x14, 0xd3, 0xfb, 0x39, 0x2f,
  0xe2, 0x0c, 0x2a, 0x0c, 0x2a, 0x01, 0xc4, 0xd7, 0x0b, 0xb2, 0x85, 0xe2,
  0x5c, 0xdc, 0x10, 0xf2, 0x22, 0x03, 0x35, 0x23, 0x01, 0xea, 0x00, 0xeb,
  0xda, 0x06, 0x04, 0x11, 0x23, 0x14, 0x16, 0x0c, 0x18, 0x4c, 0xfc, 0x0b,
  0x01, 0xff, 0xdd, 0x0a, 0x11, 0x15, 0x52, 0xfc, 0x04, 0x4f, 0x78, 0x02,
  0xf6, 0xe7, 0xd2, 0xfd, 0xf8, 0x9b, 0xc7, 0x0c, 0xe6, 0xaf, 0x81, 0xec,
  0x4a, 0xdd, 0xa7, 0x42, 0x24, 0x28, 0x01, 0x06, 0xef, 0xfe, 0x36, 0xde,
  0x18, 0xdd, 0x38, 0x15, 0xf8, 0xfb, 0x23, 0x1c, 0xf3, 0xf8, 0x2a, 0x0d,
  0x07, 0xe3, 0x30, 0x10, 0x01, 0x32, 0x7b, 0x0b, 0xfc, 0xc9, 0xc0, 0xfd,
  0x14, 0xa2, 0xb0, 0x04, 0xfc, 0xf7, 0x4e, 0xf5, 0xe5, 0xda, 0x13, 0x12,
  0xe4, 0xe2, 0xf3, 0x20, 0xa6, 0xf5, 0x14, 0x17, 0xeb, 0xe0, 0xf0, 0x1f,
  0x36, 0x1d, 0xcc, 0x2d, 0xd0, 0x43, 0x1b, 0x08, 0x03, 0x39, 0x0b, 0xfc,
  0x07, 0x01, 0x54, 0xf0, 0xf8, 0x46, 0x4d, 0x05, 0x07, 0x0a, 0x28, 0x16,
  0xec, 0x1d, 0x4e, 0x07, 0x04, 0x12, 0x24, 0xf6, 0x2a, 0x25, 0xf3, 0x1a,
  0x14, 0xf0, 0xfd, 0xf7, 0x0b, 0xe9, 0xeb, 0x05, 0xf7, 0xd2, 0x37, 0x1a,
  0xc5, 0x20, 0x0f, 0xf0, 0x0a, 0xcf, 0x07, 0x15, 0x05, 0x3d, 0x3f, 0xfa,
  0xff, 0xfa, 0xfd, 0x11, 0xaa, 0x59, 0x22, 0x13, 0x32, 0x51, 0x0d, 0x08,
  0x12, 0xee, 0xfc, 0xef, 0x02, 0x16, 0x35, 0x19, 0x31, 0xb6, 0xbf, 0xf2,
  0x22, 0x3b, 0x40, 0x23, 0xed, 0x37, 0x02, 0x0f, 0xfb, 0x0d, 0x21, 0x1a,
  0x2f, 0x1b, 0x51, 0x10, 0xf8, 0xe0, 0x9a, 0xe1, 0x13, 0x11, 0xee, 0xf9,
  0x0b, 0x24, 0xf8, 0x0a, 0x16, 0x54, 0x13, 0xb4, 0x15, 0xe8, 0xd7, 0xc5,
  0x2d, 0x1b, 0x15, 0xf1, 0x3e, 0xa4, 0xc9, 0xa8, 0x0b, 0xaf, 0xf9, 0xdf,
  0x2b, 0x0f, 0xc2, 0x1d, 0xfb, 0x09, 0x3f, 0xb2, 0xf4, 0xaf, 0xe3, 0xb6,
  0xb0, 0x33, 0xbe, 0xe4, 0xa6, 0xbe, 0xe1, 0xd6, 0xb2, 0xbc, 0xde, 0x04,
  0xe2, 0x19, 0xb7, 0xa3, 0xfd, 0xaa, 0x37, 0xb0, 0xea, 0x05, 0x00, 0xb6,
  0xee, 0xca, 0xd9, 0x9d, 0x16, 0x92, 0xad, 0xe3, 0x15, 0xdb, 0x30, 0xbd,
  0xc1, 0xae, 0xaf, 0x3a, 0xea, 0xb5, 0xcb, 0x30, 0xec, 0x0b, 0x2e, 0x8a,
  0x1a, 0xe4, 0x27, 0x2e, 0xe2, 0x15, 0x2a, 0xe4, 0xe6, 0x8c, 0x39, 0x2b,
  0xcf, 0x24, 0x2b, 0x01, 0x01, 0xda, 0x31, 0xba, 0x03, 0x40, 0x2a, 0xc2,
  0xf8, 0x1e, 0xa7, 0xf5, 0xfc, 0x37, 0x28, 0xed, 0x0b, 0xdc, 0xb6, 0x23,
  0xf0, 0xc3, 0xe6, 0x94, 0xd0, 0x32, 0xfb, 0x16, 0x24, 0x3d, 0xd9, 0xf3,
  0xea, 0x95, 0xd5, 0xdc, 0x15, 0xb7, 0xd5, 0x18, 0xb2, 0xc2, 0xd1, 0x0e,
  0xd7, 0x0e, 0x44, 0x1f, 0x1e, 0x8c, 0x29, 0xcd, 0x46, 0x0a, 0x0c, 0xb9,
  0xe4, 0x41, 0x24, 0x99, 0xe6, 0x1a, 0xe6, 0x0b, 0xd1, 0x4f, 0x29, 0xf0,
  0x24, 0xca, 0x22, 0xad, 0x0f, 0xa3, 0xbe, 0xfc, 0x27, 0xa4, 0xda, 0x9a,
  0x1d, 0xc5, 0x05, 0x3b, 0xf8, 0xc9, 0x9b, 0xd1, 0x38, 0x32, 0xbe, 0xbe,
  0xef, 0x1e, 0x0f, 0xde, 0x3d, 0x9f, 0xc6, 0xc5, 0x3a, 0x20, 0xf7, 0xe7,
  0xf2, 0xdd, 0xa6, 0x2b, 0x03, 0x0f, 0x3b, 0x2d, 0xcb, 0x01, 0xab, 0x0b,
  0xb6, 0x15, 0x07, 0x17, 0xd9, 0xa1, 0x45, 0x1c, 0x09, 0x15, 0x35, 0xf4,
  0xd7, 0xd5, 0xfe, 0x81, 0x1d, 0xcb, 0x0e, 0x0a, 0xa3, 0x3c, 0x15, 0xbd,
  0x39, 0xb5, 0xaa, 0x34, 0x1b, 0x31, 0xcf, 0x2e, 0x0f, 0x9f, 0x9a, 0xba,
  0xce, 0xa7, 0x94, 0xe8, 0xa9, 0x27, 0x27, 0x34, 0xb6, 0x12, 0x11, 0xb0,
  0x3c, 0xd6, 0xa1, 0x58, 0xd4, 0x2b, 0xaf, 0x01, 0xf5, 0xb1, 0xaa, 0xa9,
  0xca, 0x3c, 0xf0, 0xb2, 0x09, 0x10, 0x3a, 0x0c, 0x2e, 0x06, 0xed, 0xff,
  0x19, 0x27, 0xf3, 0x19, 0xcb, 0xe9, 0x20, 0x41, 0xd7, 0x55, 0xeb, 0x20,
  0x81, 0x88, 0x25, 0xd5, 0x04, 0xe4, 0xf8, 0x14, 0x3b, 0xb1, 0xb9, 0xef,
  0x09, 0x28, 0xf1, 0xb7, 0x21, 0xbe, 0x97, 0xbf, 0x05, 0xca, 0xd7, 0x2e,
  0xfe, 0xce, 0x26, 0xf1, 0x00, 0x35, 0xc2, 0xfb, 0x0f, 0xe8, 0xa6, 0x04,
  0xbd, 0xbd, 0xf4, 0xd2, 0xea, 0xb1, 0x26, 0x64, 0x30, 0xf1, 0x38, 0xd5,
  0xcb, 0xb8, 0x32, 0xca, 0x27, 0xe3, 0xb6, 0xaf, 0xf7, 0x37, 0x2b, 0x36,
  0x22, 0xc2, 0x29, 0xc6, 0xf1, 0xda, 0xe7, 0xb0, 0x0f, 0x30, 0x20, 0xb2,
  0xe8, 0x22, 0xd0, 0x37, 0x41, 0xe2, 0x3b, 0x65, 0x35, 0x13, 0xce, 0x1c,
  0xd1, 0xc8, 0x9b, 0xb0, 0x23, 0xb9, 0xdd, 0xf1, 0x0d, 0xf7, 0x3a, 0xd9,
  0x03, 0x37, 0x2d, 0xb2, 0x11, 0x30, 0x32, 0xb4, 0x28, 0x47, 0xc3, 0xd0,
  0xc2, 0xee, 0x2b, 0xf2, 0xc7, 0xda, 0xbe, 0xb2, 0x8e, 0xbf, 0xe4, 0xc0,
  0xf8, 0xd7, 0x9b, 0xda, 0xc3, 0x44, 0x39, 0xfd, 0xd5, 0x1b, 0xfb, 0x9e,
  0xca, 0x29, 0x09, 0xe7, 0xd5, 0xc4, 0xe8, 0x1b, 0x14, 0x25, 0xb3, 0xe5,
  0xea, 0xda, 0xe5, 0xac, 0xa1, 0x27, 0x86, 0xa8, 0xf0, 0xa2, 0x9d, 0xa9,
  0xfe, 0x19, 0xfd, 0xe5, 0x25, 0xc6, 0x08, 0xd8, 0xb7, 0xd4, 0xcf, 0x24,
  0xdf, 0xba, 0xa0, 0x17, 0xea, 0xd7, 0xf4, 0x27, 0x1a, 0x1f, 0x29, 0x2a,
  0x07, 0x10, 0xa8, 0xb4, 0xe3, 0x24, 0xe0, 0x40, 0xa9, 0x1e, 0x36, 0xf6,
  0xa2, 0xae, 0x51, 0xe0, 0x27, 0xc4, 0xfe, 0x48, 0xa2, 0xec, 0xfc, 0xc3,
  0xae, 0x33, 0xd5, 0xaa, 0xb0, 0x35, 0x0b, 0x4b, 0xa0, 0x30, 0xaa, 0xe9,
  0xcb, 0xca, 0x4d, 0xff, 0x9f, 0x19, 0x3d, 0xa5, 0x9b, 0xa2, 0x12, 0xa8,
  0x21, 0x14, 0x06, 0xe2, 0x32, 0x18, 0xf4, 0xd4, 0x0c, 0x1b, 0xf4, 0xca,
  0xec, 0x15, 0xfc, 0xe3, 0x17, 0x18, 0x40, 0x11, 0x31, 0x65, 0x5e, 0x1a,
  0xe2, 0x18, 0x35, 0x29, 0xf6, 0x0d, 0xe3, 0x06, 0x0c, 0xf7, 0x04, 0xeb,
  0xe7, 0x0d, 0x01, 0xe0, 0x0b, 0xec, 0xe2, 0xf7, 0x03, 0xc8, 0xd5, 0xf0,
  0x21, 0x28, 0x0a, 0xf7, 0x14, 0xdc, 0x02, 0xe7, 0x0c, 0xd0, 0x81, 0xf0,
  0x03, 0x00, 0xf7, 0xf4, 0x26, 0x5c, 0x1a, 0xfc, 0x10, 0x45, 0x4c, 0x2a,
  0xda, 0x2c, 0x16, 0x0a, 0xec, 0x0d, 0x07, 0xef, 0xfa, 0xe1, 0x01, 0xe0,
  0xf0, 0xde, 0xe6, 0xff, 0x06, 0xe4, 0x17, 0xeb, 0x09, 0xfc, 0xf9, 0xe7,
  0xc1, 0xd1, 0xfb, 0xe3, 0xc9, 0xd0, 0xa1, 0xda, 0x09, 0x32, 0x34, 0x06,
  0x03, 0x4d, 0x4b, 0xd8, 0x37, 0x0c, 0xf0, 0xf0, 0x41, 0x2b, 0xfd, 0xe9,
  0x3c, 0x16, 0x04, 0xc3, 0x3d, 0x1b, 0x1a, 0xb8, 0xf1, 0x24, 0x2b, 0x04,
  0xef, 0x15, 0x51, 0xf3, 0x38, 0xe0, 0x17, 0xfb, 0x09, 0xf8, 0x1c, 0xf8,
  0x1b, 0x08, 0x25, 0x22, 0xfc, 0xdc, 0x3b, 0x04, 0xfb, 0xfd, 0x25, 0xfd,
  0x25, 0x00, 0x19, 0xe0, 0xdf, 0xc7, 0xe6, 0x03, 0xde, 0xec, 0xf9, 0x0f,
  0xee, 0x18, 0xed, 0xdf, 0xe1, 0xd7, 0xe0, 0x05, 0x16, 0x1f, 0x16, 0xfe,
  0x65, 0x36, 0x0e, 0xe1, 0x36, 0x2b, 0x32, 0xe2, 0x2e, 0x0a, 0x01, 0xfe,
  0x15, 0xe4, 0x14, 0x04, 0xeb, 0xb7, 0xb6, 0xde, 0xb6, 0xd5, 0xd6, 0xd5,
  0xf9, 0x0e, 0x03, 0xe5, 0x17, 0x17, 0x10, 0x12, 0xf1, 0x18, 0x25, 0x1d,
  0xf0, 0xd2, 0xd0, 0x1f, 0x13, 0xd7, 0xe5, 0x00, 0xcd, 0xe1, 0x06, 0x20,
  0xc2, 0x07, 0xf7, 0xeb, 0x05, 0x08, 0x0d, 0x27, 0xf4, 0xe4, 0x14, 0x23,
  0x32, 0xe3, 0x1b, 0x24, 0x00, 0xfe, 0x03, 0x14, 0xe3, 0x3a, 0xf2, 0xf5,
  0x0b, 0xf0, 0xd6, 0x07, 0xcc, 0xf0, 0x00, 0xf0, 0xf1, 0x07, 0x16, 0x0b,
  0xce, 0xf1, 0x2b, 0xf4, 0x00, 0xf5, 0x26, 0xeb, 0x17, 0xec, 0xbd, 0xf5,
  0x07, 0x9e, 0x95, 0x05, 0x23, 0x0c, 0xfb, 0x11, 0xfc, 0x0e, 0x44, 0xf7,
  0x07, 0x06, 0x1e, 0xfb, 0x02, 0xf8, 0x03, 0x04, 0x12, 0x2e, 0x03, 0x02,
  0x0e, 0x40, 0x18, 0xe4, 0xfd, 0x07, 0xd8, 0x01, 0x0b, 0x28, 0x3f, 0xfb,
  0x10, 0x21, 0x7f, 0x00, 0xf1, 0xeb, 0xed, 0xf4, 0xe6, 0xb2, 0xc6, 0x22,
  0x01, 0xd1, 0xa6, 0xe9, 0x37, 0xfb, 0xa2, 0x30, 0x0f, 0x29, 0x00, 0x1b,
  0xee, 0xfa, 0x1c, 0xfc, 0xf5, 0xfe, 0x22, 0x1a, 0x15, 0x0d, 0x1a, 0x08,
  0x17, 0xde, 0x1f, 0xf5, 0x0f, 0xe2, 0x32, 0x1d, 0xe5, 0x47, 0x52, 0x0d,
  0xf6, 0xcc, 0xd9, 0xf1, 0x01, 0xb1, 0xb3, 0xf9, 0xef, 0xf1, 0x3d, 0xd7,
  0xd0, 0xe7, 0xf2, 0x1e, 0xcb, 0x00, 0x19, 0x17, 0xa8, 0xcb, 0xf5, 0x01,
  0xee, 0x00, 0xe4, 0x01, 0x05, 0x2e, 0xd2, 0x27, 0xd7, 0x4c, 0xff, 0x0a,
  0x0d, 0x16, 0x1f, 0x02, 0xff, 0x0d, 0x1e, 0x08, 0x10, 0x14, 0x52, 0xf5,
  0x15, 0xfa, 0x2f, 0x10, 0x03, 0x1b, 0x49, 0x05, 0xfb, 0x23, 0x19, 0x02,
  0x22, 0xf6, 0xf0, 0xf0, 0x0c, 0x02, 0xfd, 0x0e, 0x0f, 0x14, 0x00, 0xf9,
  0xf6, 0xf0, 0x20, 0x10, 0xcb, 0x04, 0xe3, 0x08, 0xf1, 0xce, 0xfe, 0x0b,
  0x04, 0x37, 0x2c, 0xf2, 0x12, 0x1f, 0x16, 0x07, 0xd9, 0x57, 0x1d, 0xe0,
  0x0c, 0x2a, 0x27, 0x1c, 0x18, 0xf0, 0xe1, 0xd7, 0xf2, 0xff, 0x1a, 0x1f,
  0x11, 0xcd, 0xd0, 0xea, 0x12, 0x0a, 0x2c, 0x08, 0x03, 0x0a, 0x21, 0x0f,
  0x12, 0x18, 0x0f, 0x12, 0x2c, 0x22, 0x58, 0x00, 0x05, 0xfd, 0xbe, 0xe6,
  0x26, 0x04, 0xe3, 0xd1, 0x00, 0x1f, 0xed, 0x04, 0xee, 0x50, 0x1c, 0xeb,
  0x15, 0xd0, 0xd9, 0xd8, 0x18, 0x1f, 0x0a, 0xf9, 0xdf, 0x18, 0xf8, 0xf2,
  0xd6, 0x0d, 0x3d, 0x24, 0xd3, 0x1e, 0x30, 0x10, 0xf4, 0xfa, 0x2e, 0xf8,
  0x3b, 0x06, 0xdc, 0x07, 0x02, 0x94, 0x8b, 0xe5, 0x2c, 0xfa, 0xfa, 0x16,
  0x21, 0x38, 0x36, 0x18, 0xfe, 0x1f, 0x0d, 0xf2, 0xf2, 0xe4, 0x00, 0x1b,
  0xf0, 0x22, 0x22, 0xed, 0xfa, 0x4e, 0xf1, 0xe9, 0x10, 0xd7, 0xf2, 0x00,
  0x26, 0x0c, 0x30, 0x0a, 0x09, 0x2d, 0x7f, 0xf5, 0xe9, 0xe6, 0xe0, 0xfb,
  0x0e, 0x9c, 0xb1, 0x2a, 0xe9, 0xb5, 0x83, 0xfe, 0x26, 0xfa, 0xc4, 0x26,
  0x21, 0x02, 0x10, 0x0e, 0x02, 0xfd, 0x51, 0xf5, 0xe5, 0xef, 0x10, 0x16,
  0x03, 0x0d, 0x1a, 0xf7, 0x0c, 0xd6, 0x25, 0x0a, 0xfe, 0x08, 0x3d, 0xf4,
  0x06, 0x56, 0x6e, 0x23, 0xf5, 0xc9, 0xf4, 0xdb, 0xf3, 0xbf, 0xa9, 0xff,
  0xf5, 0xe4, 0x3a, 0xf8, 0xd3, 0xde, 0x21, 0x19, 0xc2, 0x0a, 0x09, 0x1f,
  0xc4, 0xcc, 0x0c, 0xfe, 0x07, 0xfd, 0xeb, 0xfa, 0x19, 0x2e, 0xc1, 0x13,
  0xde, 0x2f, 0x1b, 0x2f, 0x0d, 0x26, 0x10, 0xec, 0xfe, 0xf4, 0x3c, 0xe8,
  0x0c, 0x38, 0x50, 0x13, 0x07, 0xf7, 0x22, 0x27, 0x0d, 0x21, 0x42, 0x01,
  0x01, 0x06, 0x0c, 0xdb, 0x1f, 0x24, 0x10, 0x0d, 0xe8, 0xf3, 0xe0, 0x1a,
  0x07, 0x04, 0xfd, 0x20, 0x0d, 0xd8, 0x25, 0x1d, 0xc2, 0xee, 0x01, 0xf6,
  0xde, 0xde, 0x0e, 0x08, 0x36, 0x2e, 0x43, 0x12, 0x0e, 0xfd, 0x11, 0x03,
  0xcd, 0x70, 0x29, 0x10, 0x17, 0x4e, 0x33, 0x27, 0xf1, 0xe9, 0xed, 0xd3,
  0x1f, 0x21, 0x2e, 0xf7, 0x08, 0xdc, 0xcd, 0x0e, 0x1f, 0x36, 0x45, 0x0b,
  0x1b, 0x3e, 0x16, 0xf6, 0x28, 0x04, 0xf1, 0xfa, 0x3c, 0x28, 0x4a, 0xec,
  0x0f, 0xd7, 0x93, 0xcf, 0x2b, 0x19, 0xe7, 0xdd, 0xee, 0x50, 0xfe, 0xdf,
  0x16, 0x36, 0x0a, 0xd2, 0x1f, 0xd8, 0xdc, 0xec, 0x03, 0x1f, 0x11, 0xd4,
  0x31, 0x00, 0x06, 0x21, 0x0e, 0x0a, 0x00, 0xeb, 0x1c, 0x0e, 0xf3, 0xee,
  0x21, 0xff, 0xe7, 0xf6, 0xd3, 0x26, 0x4a, 0x01, 0x12, 0x58, 0x7f, 0x23,
  0xc3, 0x1a, 0x1a, 0x0e, 0x04, 0x0f, 0xde, 0x23, 0x18, 0xf7, 0xf6, 0x1f,
  0x06, 0x21, 0x36, 0xea, 0x14, 0xdc, 0xfb, 0x10, 0x0e, 0xca, 0x01, 0x1c,
  0xff, 0x1b, 0x1d, 0x08, 0x0c, 0xf1, 0xcb, 0xfb, 0xde, 0xdb, 0x8f, 0x1d,
  0x27, 0x29, 0x2f, 0xf8, 0x03, 0x64, 0x5c, 0xea, 0xfe, 0x5c, 0x7a, 0x1d,
  0xf9, 0x3a, 0x4f, 0xcf, 0x0b, 0xf9, 0x04, 0x0f, 0x1e, 0xe5, 0xda, 0x0d,
  0x1a, 0x2c, 0xdb, 0x04, 0xf9, 0xee, 0xea, 0x12, 0xf2, 0x34, 0xf4, 0x02,
  0xf6, 0xfb, 0xf0, 0x05, 0xfa, 0xcf, 0xc7, 0x0f, 0x0f, 0x4a, 0x29, 0x20,
  0xf8, 0x46, 0x47, 0x0c, 0x1d, 0x20, 0xb9, 0x29, 0x2f, 0x2a, 0x17, 0xf0,
  0x42, 0xff, 0xfb, 0xe4, 0x5c, 0x41, 0x0f, 0x02, 0x12, 0x12, 0x41, 0x19,
  0x10, 0xef, 0x37, 0xea, 0x48, 0xd5, 0x02, 0xdb, 0x01, 0xf3, 0xe2, 0x05,
  0x01, 0x16, 0xf3, 0x0f, 0xf6, 0xd6, 0xc3, 0xe9, 0xee, 0xff, 0x05, 0xf4,
  0x03, 0xde, 0xda, 0xf9, 0x02, 0xf0, 0x07, 0x09, 0xf4, 0xe1, 0x1f, 0xf9,
  0x18, 0x2d, 0x0c, 0x1f, 0xe6, 0xf6, 0x17, 0x00, 0x1f, 0x17, 0x03, 0xf1,
  0x4d, 0x12, 0x11, 0xf2, 0x2f, 0x44, 0x01, 0xf5, 0x18, 0xbc, 0xdd, 0xf9,
  0x0d, 0xf1, 0x09, 0x12, 0x46, 0xbd, 0xcb, 0xf9, 0xea, 0xd3, 0xe1, 0x06,
  0x16, 0x04, 0x1e, 0x1c, 0xfb, 0xf9, 0xf9, 0x22, 0x14, 0x44, 0x38, 0x2a,
  0xfb, 0xd6, 0xcb, 0x10, 0xfb, 0xd5, 0xff, 0x10, 0x1c, 0xf2, 0xfa, 0xfe,
  0xe0, 0xfb, 0xb5, 0x0c, 0xfd, 0x12, 0x64, 0x42, 0xce, 0xfe, 0x2c, 0x0f,
  0x1a, 0xe1, 0xfd, 0x21, 0xec, 0xf1, 0x21, 0x33, 0xf7, 0x39, 0x13, 0x1d,
  0x0b, 0x10, 0xfc, 0x1a, 0x18, 0x0c, 0x08, 0x0b, 0x22, 0x17, 0xea, 0xf2,
  0x20, 0xf6, 0xe5, 0x02, 0x17, 0xfd, 0xe6, 0xfb, 0xea, 0x1e, 0x54, 0x10,
  0x18, 0x56, 0x7f, 0xfa, 0xdb, 0x0c, 0x35, 0x0c, 0x05, 0x05, 0xdc, 0x06,
  0xf9, 0xfa, 0xeb, 0xfc, 0xff, 0x05, 0x20, 0x05, 0x02, 0xd6, 0xf6, 0x09,
  0xf2, 0xc2, 0xef, 0x0a, 0x25, 0x2b, 0x16, 0xf7, 0xf6, 0xed, 0xd5, 0x0f,
  0xf7, 0xd7, 0xae, 0xfb, 0xfd, 0x22, 0x0b, 0x08, 0x0d, 0x3f, 0x46, 0xf2,
  0xfa, 0x4a, 0x70, 0x19, 0xdf, 0x38, 0x47, 0xee, 0xf6, 0xe8, 0xf7, 0xf9,
  0x06, 0x00, 0xe8, 0x01, 0xfd, 0xf2, 0xd3, 0xf2, 0xfd, 0xf8, 0x03, 0x12,
  0x11, 0x08, 0xe4, 0x11, 0xeb, 0xfe, 0xd2, 0xfb, 0xe6, 0xc3, 0xb4, 0xe2,
  0x1c, 0x19, 0x29, 0x03, 0xf9, 0x3f, 0x36, 0xfa, 0x12, 0x18, 0xd2, 0x03,
  0x24, 0x30, 0xfb, 0xff, 0x37, 0x14, 0x09, 0xee, 0x3b, 0x20, 0x15, 0xfb,
  0xf8, 0x13, 0x1d, 0x06, 0xf1, 0x0c, 0x40, 0xff, 0x20, 0xdb, 0xf4, 0xe9,
  0x21, 0x05, 0xf4, 0x19, 0x0e, 0xfc, 0xdf, 0x14, 0x06, 0xdb, 0xd0, 0x08,
  0xef, 0x05, 0xf2, 0xf5, 0xfb, 0xfd, 0xdb, 0xf2, 0xfa, 0xeb, 0xdf, 0x23,
  0xe6, 0xe7, 0x06, 0xff, 0xf1, 0xfa, 0x05, 0x0f, 0x01, 0xf3, 0x01, 0x0d,
  0x22, 0x1f, 0x02, 0xfc, 0x47, 0x22, 0x19, 0xf3, 0x2e, 0x40, 0x0f, 0x13,
  0x0c, 0xdc, 0xe5, 0x05, 0x04, 0xe6, 0x06, 0x12, 0x20, 0xbb, 0xdd, 0x0c,
  0xd9, 0xe3, 0xed, 0x0b, 0xfb, 0x10, 0x02, 0x0d, 0x17, 0xfa, 0x09, 0x0e,
  0xf2, 0x25, 0x1f, 0x1e, 0xf3, 0xf9, 0xd4, 0xfa, 0x06, 0xd4, 0xed, 0x1b,
  0x0a, 0x01, 0x15, 0x02, 0xd9, 0xe6, 0xd8, 0x17, 0x09, 0x16, 0x64, 0x24,
  0xe7, 0xf4, 0x2a, 0x28, 0x1b, 0xce, 0xfb, 0x20, 0xf7, 0xf6, 0x22, 0x51,
  0xfc, 0x2f, 0x1e, 0x2c, 0xf7, 0x15, 0x0b, 0x22, 0xc2, 0xee, 0x18, 0x10,
  0xdc, 0xf5, 0x15, 0x1a, 0xff, 0x02, 0x37, 0x28, 0xe4, 0x05, 0x2e, 0xe8,
  0x26, 0xe9, 0xcf, 0xed, 0xe3, 0xa7, 0x81, 0xef, 0x2f, 0xe7, 0x03, 0x04,
  0xfc, 0x36, 0x4a, 0xf9, 0xe6, 0xfe, 0x2d, 0xd9, 0xdc, 0x09, 0xd7, 0x0f,
  0x00, 0x22, 0x14, 0x10, 0x03, 0x4a, 0x20, 0xf5, 0xea, 0xf8, 0xfd, 0xf4,
  0x13, 0x2b, 0x50, 0x05, 0x0c, 0x31, 0x63, 0xf8, 0xeb, 0xda, 0xd4, 0x0d,
  0x16, 0xba, 0xdd, 0x1b, 0x00, 0xb0, 0x90, 0xfd, 0x42, 0xd5, 0xab, 0x3b,
  0x1c, 0x14, 0xf0, 0x2b, 0x00, 0x0b, 0x42, 0xe6, 0x01, 0xec, 0x34, 0x0e,
  0xf7, 0xe9, 0x06, 0x0e, 0x18, 0xef, 0x1b, 0x1a, 0x1b, 0x02, 0x3e, 0x00,
  0x0d, 0x57, 0x55, 0x21, 0xe0, 0xe9, 0xcd, 0xd9, 0xf1, 0xb0, 0x96, 0x0e,
  0x09, 0x0b, 0x4f, 0xf9, 0xe1, 0xc3, 0x12, 0x1e, 0xdd, 0x10, 0x19, 0x2e,
  0xa7, 0xf0, 0xef, 0x0f, 0xf6, 0xe2, 0xcf, 0x0c, 0x1c, 0x0a, 0xc1, 0x3b,
  0xdc, 0x55, 0x26, 0x03, 0xf8, 0x37, 0x0e, 0x0b, 0xef, 0x16, 0x25, 0xeb,
  0x2c, 0x27, 0x45, 0x0b, 0x29, 0x01, 0x0d, 0x34, 0x0a, 0x17, 0x33, 0xf9,
  0xfb, 0x2c, 0x13, 0xcf, 0x26, 0x1f, 0x03, 0xe9, 0x0c, 0xf8, 0xf3, 0xea,
  0x19, 0xf2, 0x01, 0x18, 0xfd, 0x03, 0x17, 0x24, 0xe1, 0x24, 0x05, 0x00,
  0x05, 0xe4, 0x02, 0xeb, 0x31, 0x32, 0x48, 0x16, 0x12, 0x1a, 0xe3, 0x06,
  0xc7, 0x6a, 0x2d, 0xe7, 0x1b, 0x38, 0x07, 0x1a, 0xfc, 0xe0, 0x00, 0xdb,
  0x14, 0x18, 0xfd, 0x2c, 0x05, 0xb2, 0xed, 0xff, 0x0c, 0x3b, 0x39, 0x0e,
  0x03, 0x37, 0x1e, 0x14, 0x04, 0x2a, 0x08, 0x03, 0x28, 0x28, 0x71, 0x1a,
  0xe6, 0x0b, 0x8b, 0xc6, 0x34, 0x2b, 0xcf, 0xeb, 0xfb, 0x46, 0x01, 0xe9,
  0xfe, 0x33, 0xf9, 0xb4, 0x25, 0xeb, 0xe4, 0xf9, 0x2e, 0x03, 0xfb, 0xdc,
  0xd4, 0x03, 0x04, 0x05, 0xf2, 0x00, 0x1e, 0x17, 0xf4, 0x0a, 0x29, 0x05,
  0xfe, 0x07, 0xfd, 0xe6, 0x18, 0xdf, 0xd1, 0xf4, 0xfc, 0xa7, 0x81, 0xe7,
  0x45, 0xe5, 0x0a, 0xe9, 0x08, 0x0e, 0x21, 0x06, 0xfc, 0x1e, 0x04, 0x01,
  0xe9, 0xf7, 0xf4, 0x0a, 0x0d, 0x2b, 0x24, 0xe8, 0x07, 0x27, 0xfe, 0xfa,
  0xe7, 0xf8, 0xf4, 0xfe, 0x0f, 0x1b, 0x21, 0x15, 0x12, 0x15, 0x6f, 0x0d,
  0xf1, 0xe9, 0x00, 0x08, 0x17, 0xb3, 0xd1, 0x11, 0x06, 0xd3, 0xac, 0xef,
  0x25, 0xf8, 0xbf, 0x21, 0xfc, 0x02, 0x06, 0x12, 0x00, 0x12, 0x26, 0xf4,
  0xf3, 0xdb, 0x30, 0x03, 0xfb, 0xf3, 0x1d, 0x10, 0xf2, 0xf3, 0x1c, 0xf5,
  0x11, 0x00, 0x14, 0xff, 0xf1, 0x36, 0x60, 0x15, 0x08, 0xe1, 0xf5, 0xd9,
  0xf7, 0xcb, 0xb8, 0xf4, 0xf9, 0x07, 0x3a, 0x09, 0xd4, 0xe4, 0x02, 0x01,
  0xe9, 0xfb, 0x1a, 0x11, 0xca, 0xce, 0xf5, 0x25, 0x00, 0xdd, 0xf1, 0x07,
  0x1e, 0x1f, 0xc0, 0x0d, 0xe7, 0x43, 0xfd, 0x1f, 0x02, 0x07, 0x0c, 0x11,
  0xfa, 0xea, 0x43, 0x0d, 0x1e, 0x2e, 0x2c, 0x17, 0x21, 0xf9, 0x2c, 0x1e,
  0xf2, 0x16, 0x42, 0x1a, 0x1a, 0x2b, 0x28, 0xe5, 0x07, 0x15, 0x08, 0x02,
  0x16, 0xe7, 0xe2, 0xfd, 0x1f, 0xf6, 0x1a, 0x1e, 0xf5, 0x01, 0x16, 0xf1,
  0xc7, 0x16, 0xff, 0x0d, 0xfa, 0xe8, 0x10, 0xfb, 0x0b, 0x49, 0x26, 0xf2,
  0xfd, 0x06, 0x0a, 0x0e, 0xc8, 0x62, 0x2a, 0x0f, 0x2e, 0x3a, 0x18, 0x11,
  0xf3, 0x03, 0xe5, 0xf7, 0x18, 0x07, 0x20, 0x14, 0x17, 0xc9, 0xe4, 0x00,
  0x18, 0x19, 0x30, 0x14, 0x0d, 0x2e, 0xfd, 0xfc, 0x04, 0x13, 0xf8, 0xf7,
  0x28, 0x1d, 0x31, 0x08, 0x04, 0xfe, 0x9d, 0xd0, 0x2a, 0x02, 0xcd, 0xff,
  0xff, 0x37, 0x11, 0x08, 0x1f, 0x3f, 0x18, 0xc1, 0x25, 0xe8, 0xed, 0xd9,
  0x20, 0xf2, 0x15, 0xe0, 0xdb, 0xdc, 0x17, 0xd1, 0xe4, 0xda, 0x2b, 0xd8,
  0xc7, 0xd3, 0xef, 0xfb, 0xf9, 0xe5, 0xf4, 0x08, 0x54, 0x16, 0x0f, 0xe7,
  0x10, 0xc0, 0xb5, 0x03, 0x2f, 0x39, 0x2a, 0xf3, 0xfb, 0x45, 0x75, 0x26,
  0xdf, 0x9d, 0xe4, 0xef, 0xe5, 0xcf, 0x94, 0x0c, 0xf7, 0x1c, 0x00, 0xfd,
  0xeb, 0x2d, 0xf2, 0xe5, 0x0e, 0xfa, 0x1f, 0x05, 0xf8, 0x03, 0xf5, 0x18,
  0xf6, 0x2d, 0x7f, 0x11, 0x0c, 0xf4, 0x08, 0x03, 0x21, 0xf1, 0xe3, 0x0d,
  0xfd, 0xe2, 0x82, 0xfd, 0x12, 0x03, 0xc0, 0x3b, 0x23, 0x04, 0x25, 0x09,
  0xea, 0xee, 0xf3, 0xf4, 0x02, 0xc7, 0xf0, 0xec, 0xf5, 0x0c, 0x2a, 0xf5,
  0xfe, 0xb5, 0xf9, 0xfd, 0xf0, 0xad, 0xef, 0xec, 0xef, 0x49, 0x6b, 0xc7,
  0xf3, 0xfb, 0x1f, 0xf6, 0x0e, 0xcd, 0xb8, 0x06, 0xf9, 0x05, 0x4d, 0xad,
  0xed, 0xcc, 0x36, 0xef, 0xdd, 0xff, 0xbe, 0xfe, 0xc1, 0xfe, 0xeb, 0x0f,
  0x13, 0xfd, 0xcf, 0xfb, 0x28, 0x2b, 0xcb, 0x3f, 0xc7, 0x4c, 0x18, 0x20,
  0x01, 0x2c, 0xf8, 0x02, 0x0f, 0xf7, 0x08, 0xe8, 0x06, 0xfc, 0x24, 0xb7,
  0x05, 0xf9, 0xee, 0xf2, 0x17, 0xf6, 0x38, 0x01, 0xde, 0xeb, 0xdf, 0xdb,
  0x0e, 0xfd, 0x0e, 0xf2, 0xed, 0xdd, 0x10, 0xfd, 0x17, 0x00, 0x0a, 0xde,
  0x0d, 0xff, 0x27, 0x01, 0xaf, 0xc5, 0x12, 0xe7, 0xd1, 0xbb, 0x86, 0xf0,
  0x21, 0x41, 0x10, 0x27, 0x34, 0xd9, 0xe0, 0xfd, 0x9a, 0x27, 0xfa, 0xdf,
  0xfd, 0x30, 0xee, 0x22, 0x13, 0xea, 0x19, 0xeb, 0xf6, 0x14, 0xe9, 0x2b,
  0x27, 0x8b, 0x94, 0xba, 0x14, 0x26, 0x78, 0x17, 0x2c, 0x05, 0x34, 0x0f,
  0xfb, 0x1d, 0x0b, 0x15, 0x45, 0x10, 0x1b, 0x0d, 0x35, 0xb6, 0xa7, 0x99,
  0x25, 0x2a, 0xf9, 0x17, 0xf5, 0x3a, 0x19, 0x12, 0x1e, 0x5d, 0xdc, 0xe1,
  0x12, 0xb2, 0xf5, 0xb7, 0x49, 0x37, 0x37, 0x15, 0x93, 0x0d, 0x9c, 0xb1,
  0x0a, 0x23, 0xbb, 0xb4, 0xbb, 0x04, 0xb1, 0x13, 0x11, 0x1c, 0x81, 0xca,
  0xd8, 0x2c, 0xc8, 0x05, 0xf4, 0xc4, 0x30, 0xe7, 0xcc, 0x11, 0xb3, 0xe5,
  0xb0, 0x3a, 0xb0, 0xf8, 0xc4, 0x0a, 0xbe, 0xca, 0xdd, 0xa4, 0xda, 0xcd,
  0xc6, 0xe9, 0xba, 0xb4, 0xf3, 0x11, 0x1d, 0xf2, 0x3e, 0x1c, 0x09, 0x27,
  0x02, 0xad, 0xd6, 0x00, 0xd8, 0x1c, 0x9d, 0x3c, 0xb7, 0xc4, 0xb4, 0xa8,
  0x09, 0x09, 0xbb, 0x22, 0xe8, 0x34, 0xc9, 0x34, 0x9a, 0xb9, 0xc0, 0xe9,
  0xd8, 0x89, 0x13, 0xac, 0x06, 0x2d, 0x17, 0xca, 0x1b, 0x02, 0x9a, 0xcf,
  0x03, 0xfd, 0x3c, 0xe8, 0x31, 0x35, 0xeb, 0xdd, 0x03, 0xbe, 0xe1, 0xa0,
  0xd9, 0xb0, 0x0e, 0x25, 0xcd, 0x93, 0xfc, 0xdc, 0xb2, 0x05, 0xc4, 0xfd,
  0xc1, 0x3e, 0x9e, 0xd0, 0x36, 0x04, 0x2b, 0x32, 0xe2, 0xf5, 0x3b, 0x3d,
  0x08, 0x02, 0x1f, 0xba, 0x2d, 0xa1, 0xe8, 0xaa, 0x0b, 0x36, 0x37, 0xe1,
  0xc3, 0x1e, 0xa8, 0xec, 0x11, 0x40, 0xb1, 0xf9, 0x3f, 0xf4, 0xd5, 0x38,
  0x12, 0x3a, 0x03, 0xcd, 0x17, 0xa7, 0xf9, 0xe1, 0xaf, 0xfd, 0x3e, 0x3c,
  0xdd, 0xf2, 0x99, 0xab, 0x24, 0x43, 0xde, 0xf0, 0xaf, 0xea, 0x3e, 0xdd,
  0x38, 0xfd, 0xf6, 0xb8, 0x03, 0xa7, 0xf5, 0xc6, 0xb1, 0x2e, 0x52, 0x96,
  0xcf, 0xfb, 0x0c, 0xa5, 0xea, 0xee, 0x2c, 0x82, 0xec, 0xb9, 0xea, 0x1d,
  0xf5, 0xbf, 0xc7, 0xbf, 0x97, 0x2c, 0x29, 0xc8, 0x02, 0x2b, 0x15, 0xe5,
  0xb5, 0x43, 0xbd, 0xe0, 0xe7, 0xdf, 0x14, 0xef, 0xbf, 0x9b, 0x3f, 0xd0,
  0x3f, 0x17, 0x16, 0x3a, 0xeb, 0x0a, 0x08, 0x3d, 0x23, 0xd4, 0xc6, 0x2e,
  0x16, 0xb1, 0xea, 0x2c, 0xc0, 0xeb, 0xf9, 0xa6, 0xd0, 0xd1, 0xb3, 0xde,
  0x0d, 0xac, 0xfc, 0xc5, 0xfc, 0xd5, 0xdc, 0xfc, 0xd1, 0xe7, 0x1e, 0x98,
  0xb3, 0xe0, 0x04, 0xb1, 0xcd, 0xdc, 0x15, 0xce, 0xad, 0x00, 0x02, 0x12,
  0xf6, 0x12, 0xfd, 0xe8, 0x2d, 0x35, 0x02, 0x0f, 0x0f, 0xf9, 0xe7, 0x04,
  0x51, 0x31, 0x3f, 0x1a, 0xf7, 0x3e, 0x68, 0x2e, 0xea, 0xf0, 0x02, 0x18,
  0xec, 0xf8, 0xcc, 0x07, 0xf4, 0x23, 0x26, 0x01, 0x06, 0x27, 0x14, 0xf7,
  0x1c, 0xff, 0xed, 0x40, 0x0c, 0x3e, 0x2f, 0x07, 0x03, 0x44, 0x6e, 0x13,
  0xee, 0xd6, 0xed, 0x21, 0xfa, 0xd3, 0xea, 0x0a, 0x0a, 0x9f, 0x81, 0xc2,
  0x1f, 0xe8, 0xca, 0x0c, 0x16, 0xfc, 0x0a, 0x0e, 0xbf, 0xeb, 0x0d, 0x0c,
  0xd6, 0xff, 0x18, 0xe9, 0xda, 0xd9, 0x06, 0xe9, 0xec, 0xd7, 0xeb, 0x1b,
  0xfc, 0xd2, 0x08, 0x0f, 0x09, 0x6b, 0x72, 0xe7, 0xec, 0xda, 0xf9, 0xdb,
  0x11, 0x9e, 0xcb, 0xf7, 0xd1, 0xf5, 0x5f, 0xb8, 0xec, 0xc4, 0x31, 0xe4,
  0xca, 0xf8, 0xfb, 0xfe, 0xb9, 0x10, 0x1e, 0xeb, 0xfb, 0xd7, 0xaf, 0xcd,
  0x1f, 0xea, 0xae, 0x18, 0xe6, 0x36, 0x05, 0x0d, 0x26, 0x5b, 0x05, 0x10,
  0xea, 0x05, 0x23, 0xea, 0x11, 0x10, 0x4e, 0xe7, 0x0b, 0x04, 0x0c, 0x0a,
  0x0e, 0x0f, 0x0a, 0x31, 0x1b, 0x0b, 0x0c, 0x03, 0x38, 0xf5, 0xfe, 0x17,
  0x15, 0xff, 0xf5, 0xef, 0x0d, 0x09, 0xf2, 0x10, 0x1f, 0xeb, 0x23, 0xf1,
  0xdc, 0xeb, 0x08, 0xf2, 0xf7, 0xc4, 0xe6, 0x06, 0x0a, 0x50, 0x4a, 0x22,
  0x12, 0xdc, 0xec, 0x1e, 0xbe, 0x54, 0x29, 0xf3, 0x1d, 0x48, 0xf0, 0xf0,
  0x14, 0xf7, 0xf7, 0xfc, 0xfe, 0x0e, 0xff, 0x3a, 0xf9, 0xa8, 0xab, 0xce,
  0x08, 0x01, 0x30, 0x0a, 0x01, 0xf1, 0x2b, 0x0d, 0x21, 0xfd, 0xeb, 0xe9,
  0x2a, 0xcf, 0x27, 0xe8, 0xff, 0x92, 0x8f, 0x98, 0x2c, 0x23, 0xd4, 0x21,
  0xd8, 0x35, 0xf9, 0x0a, 0xfe, 0x26, 0xf1, 0xe5, 0x1e, 0xf6, 0xfe, 0xd8,
  0x2c, 0x1a, 0x4e, 0x1b, 0x1f, 0xb5, 0xe5, 0x15, 0xc0, 0x25, 0xad, 0xe9,
  0xcc, 0xf9, 0xc3, 0xe8, 0xfb, 0x00, 0xd7, 0xf7, 0xbd, 0x03, 0x27, 0xdf,
  0xd4, 0xec, 0x3b, 0xe7, 0xa5, 0x05, 0x1c, 0xd4, 0x08, 0xcf, 0xcd, 0xb3,
  0x9e, 0xb9, 0xe4, 0xb8, 0x0c, 0xde, 0x91, 0xee, 0xf8, 0x09, 0x81, 0x1f,
  0xaf, 0x97, 0xdf, 0x11, 0xbf, 0xc6, 0x0e, 0xc1, 0xce, 0x16, 0x34, 0x05,
  0xb7, 0xd9, 0xe1, 0xc2, 0xa2, 0xef, 0x04, 0xc1, 0xb3, 0x11, 0x40, 0x33,
  0x02, 0xa4, 0x23, 0xb9, 0x14, 0x03, 0xee, 0x11, 0x89, 0x97, 0xae, 0x91,
  0xa9, 0x9a, 0xfe, 0xc2, 0xfb, 0xfe, 0xca, 0xfa, 0xe0, 0xf0, 0xea, 0xb1,
  0xa6, 0xe2, 0xdc, 0xde, 0xd6, 0x1c, 0x02, 0x27, 0x35, 0x3d, 0xff, 0xf9,
  0xb2, 0xee, 0x06, 0xa6, 0xd9, 0x1c, 0x29, 0xe0, 0x0a, 0x02, 0xfb, 0x91,
  0xee, 0xcd, 0x01, 0xbe, 0x1d, 0xc9, 0x22, 0xce, 0xf8, 0xb7, 0xb5, 0xf2,
  0xaf, 0xa5, 0x8d, 0xa2, 0x14, 0xcf, 0x2b, 0x2e, 0xfe, 0xf3, 0xde, 0x2f,
  0xd3, 0xe7, 0xf6, 0x04, 0x15, 0xaa, 0x10, 0xfc, 0xe8, 0xbd, 0x29, 0xd1,
  0x1d, 0x3e, 0x20, 0xd9, 0xa3, 0xc2, 0xa2, 0xb1, 0xc1, 0x9b, 0x07, 0xc2,
  0xff, 0x91, 0xdc, 0x9b, 0x0e, 0xd6, 0xf6, 0xaf, 0xe0, 0x0b, 0x26, 0xb2,
  0x37, 0xdf, 0xb1, 0x9b, 0xe1, 0xd9, 0xc4, 0xdc, 0x33, 0xe0, 0xe5, 0x9c,
  0xf4, 0xc7, 0x1c, 0xcf, 0xc7, 0xbf, 0xff, 0xf4, 0x2f, 0xe7, 0xd9, 0x20,
  0x3d, 0xf2, 0xf6, 0x21, 0xd0, 0xa4, 0xc0, 0xe5, 0x12, 0xf6, 0x1e, 0x05,
  0xb9, 0x16, 0xfd, 0xd5, 0xc2, 0xf9, 0xe6, 0x00, 0xbd, 0x0f, 0xc3, 0x87,
  0xfe, 0x91, 0xd1, 0x9a, 0xcf, 0xd3, 0x1b, 0x1f, 0xfc, 0xc0, 0xc9, 0xfc,
  0x14, 0x03, 0x17, 0xbe, 0xfb, 0xec, 0xd7, 0xba, 0xa7, 0x18, 0x21, 0x19,
  0x96, 0xf7, 0xbf, 0xeb, 0xf4, 0x16, 0xf3, 0xdc, 0x2e, 0x13, 0x13, 0x22,
  0x1f, 0xfd, 0xe7, 0xf9, 0x23, 0xfe, 0xe4, 0xe9, 0x0a, 0x0b, 0xf2, 0xfe,
  0xda, 0x13, 0x49, 0xff, 0x04, 0x42, 0x7d, 0x0a, 0xec, 0x20, 0x3a, 0x02,
  0xfc, 0x08, 0x11, 0x0f, 0x06, 0xf3, 0xe7, 0xfb, 0x00, 0xe0, 0x08, 0xfb,
  0xee, 0xb8, 0xf3, 0xf9, 0xcd, 0xa0, 0xe1, 0xfe, 0x07, 0x26, 0x28, 0x05,
  0x0a, 0xd4, 0xda, 0x0f, 0x09, 0x02, 0xd4, 0x01, 0x04, 0xee, 0x1f, 0x0c,
  0x08, 0x42, 0x2e, 0xf6, 0x15, 0x5b, 0x7f, 0x2c, 0xda, 0x37, 0x33, 0x02,
  0xf7, 0xf2, 0x04, 0x0b, 0x1d, 0xec, 0xd8, 0x18, 0x10, 0xff, 0xdb, 0x08,
  0xe4, 0xf1, 0x00, 0x12, 0x06, 0xe7, 0xd7, 0x04, 0xef, 0xe4, 0xdd, 0x00,
  0xdc, 0xdf, 0xa1, 0xf9, 0x01, 0xe8, 0x55, 0x07, 0xe5, 0xfb, 0xf7, 0xe7,
  0x10, 0x0e, 0xd1, 0x0a, 0x09, 0x27, 0xcd, 0xea, 0x20, 0x0c, 0xf9, 0xe3,
  0x48, 0x38, 0xf2, 0x01, 0x0d, 0x23, 0x25, 0x09, 0xf2, 0x1a, 0x4f, 0xe4,
  0x12, 0xdd, 0x06, 0xf6, 0x14, 0x0a, 0x13, 0x21, 0x0e, 0x02, 0xe7, 0x17,
  0xe9, 0xe3, 0xba, 0x08, 0xfd, 0xf3, 0xfb, 0x01, 0x0d, 0x03, 0xda, 0xf8,
  0x0c, 0xce, 0xd8, 0x20, 0xdc, 0xd5, 0xf7, 0x17, 0xe3, 0xff, 0xeb, 0x0f,
  0xca, 0xc0, 0xf9, 0x15, 0x22, 0x29, 0xda, 0x15, 0x29, 0x14, 0xe6, 0x0f,
  0x30, 0x15, 0x1d, 0xf1, 0x25, 0xf8, 0xdd, 0x02, 0xec, 0xe2, 0x0c, 0xff,
  0x2d, 0xa2, 0xc5, 0x16, 0xe9, 0xf2, 0xd9, 0xf9, 0xf4, 0xe2, 0xf1, 0x0e,
  0x1f, 0xfb, 0xfb, 0x05, 0xfa, 0x3b, 0x02, 0x2f, 0xde, 0xee, 0xe3, 0x25,
  0xf6, 0xca, 0xe9, 0x02, 0x08, 0xe6, 0x0a, 0x09, 0xf3, 0xf5, 0xf4, 0x17,
  0xcf, 0xf5, 0x1f, 0x2b, 0xbd, 0xf5, 0x32, 0x30, 0x20, 0xeb, 0x1c, 0x11,
  0x22, 0xf7, 0x10, 0x3b, 0xf1, 0x20, 0x1d, 0x2d, 0xf1, 0x10, 0x15, 0x38,
  0xfb, 0x9b, 0x3f, 0x47, 0x8b, 0xc6, 0xd7, 0xb2, 0x23, 0x9f, 0x28, 0xb8,
  0x1e, 0x12, 0xbc, 0xd5, 0x4b, 0x56, 0xf5, 0xe3, 0xfd, 0xdd, 0xc9, 0xf7,
  0xa0, 0x02, 0x54, 0xf3, 0x06, 0xac, 0xc1, 0x05, 0x27, 0xee, 0x99, 0xf5,
  0x33, 0x22, 0x1d, 0x3b, 0xc1, 0x8c, 0xd5, 0x35, 0x8d, 0x27, 0xd8, 0x1c,
  0x0a, 0xee, 0x52, 0x9e, 0x56, 0x40, 0x9d, 0xc8, 0xc8, 0x1f, 0x11, 0xd4,
  0xdb, 0x50, 0xc6, 0x38, 0x22, 0x26, 0x9a, 0xe7, 0x23, 0xc2, 0xf9, 0xc2,
  0xce, 0x5a, 0xbc, 0xe5, 0x81, 0x9c, 0xa5, 0x0d, 0xfc, 0xc4, 0xe2, 0xb7,
  0x01, 0x00, 0xf8, 0x0e, 0xbf, 0xd3, 0x01, 0xfb, 0xd6, 0xfe, 0xcc, 0xde,
  0xbe, 0x6d, 0x48, 0x93, 0xb5, 0xd5, 0x10, 0x3b, 0x9c, 0x11, 0x2f, 0x8d,
  0xe4, 0xf9, 0xc3, 0x18, 0x3a, 0xb1, 0xd3, 0x9b, 0x55, 0xd5, 0xfc, 0xf6,
  0x4e, 0x15, 0xdf, 0xad, 0x4d, 0x19, 0x2c, 0xb8, 0xc5, 0x06, 0xf1, 0xcc,
  0xa2, 0x9c, 0x1b, 0xb3, 0x0e, 0xe1, 0xfd, 0x18, 0xd9, 0x0f, 0xa8, 0xa2,
  0xb0, 0xbd, 0x18, 0xf8, 0xdf, 0x1b, 0x24, 0xdd, 0xef, 0xf8, 0x46, 0x27,
  0xbc, 0xa8, 0x2b, 0x44, 0xf8, 0x36, 0xa0, 0xbf, 0xcb, 0x1e, 0x24, 0xdd,
  0xf9, 0x17, 0xfd, 0xaa, 0x2b, 0x29, 0xf1, 0x2e, 0x00, 0xc9, 0xee, 0xf9,
  0xa7, 0x52, 0xa0, 0x03, 0x57, 0x9f, 0x21, 0x40, 0xd7, 0x92, 0x34, 0x99,
  0x52, 0xfd, 0xc0, 0x3d, 0x05, 0x88, 0xb4, 0x41, 0x49, 0x96, 0x39, 0xeb,
  0x17, 0xc7, 0x27, 0x81, 0x9c, 0xdc, 0xb9, 0x22, 0x95, 0xfe, 0xe7, 0x06,
  0xa8, 0xb3, 0x9a, 0x9b, 0xa1, 0x88, 0x03, 0x84, 0xdd, 0xe1, 0xa4, 0x44,
  0x19, 0x38, 0x2b, 0xfa, 0xaa, 0xf9, 0x42, 0xb9, 0xc0, 0xc4, 0x51, 0x28,
  0x0e, 0x41, 0x18, 0x38, 0x0f, 0xd6, 0x20, 0x53, 0x21, 0xe2, 0xbb, 0xe4,
  0xcc, 0x9e, 0x8e, 0x9f, 0x09, 0xa7, 0xd0, 0x01, 0xb8, 0x0b, 0xe7, 0xb8,
  0xfb, 0x2a, 0xf0, 0x11, 0x0e, 0x93, 0xa4, 0xe8, 0xaa, 0x3d, 0x9d, 0x9e,
  0x1d, 0xbb, 0xcc, 0xe0, 0x2d, 0xac, 0xdf, 0x38, 0xb7, 0x12, 0x01, 0x07,
  0x94, 0xdb, 0x55, 0xdf, 0xb5, 0xef, 0xdb, 0xb4, 0x92, 0xc5, 0xf8, 0x1a,
  0x19, 0xfd, 0x40, 0x44, 0xc7, 0xf2, 0x14, 0xd3, 0x06, 0xe4, 0xb4, 0x24,
  0xf7, 0x3c, 0xc1, 0xf0, 0x14, 0x02, 0xa6, 0x11, 0x43, 0xdd, 0x3b, 0xe7,
  0x28, 0xd2, 0x4d, 0xae, 0x36, 0xaf, 0x30, 0xca, 0x91, 0xf6, 0xc7, 0xd6,
  0xf5, 0xe0, 0x1e, 0xde, 0xbc, 0xbf, 0x26, 0x20, 0x45, 0xde, 0x3e, 0x09,
  0x3c, 0x04, 0xba, 0xb5, 0xb6, 0x0e, 0xb0, 0xf8, 0xb5, 0x28, 0xcd, 0x48,
  0x20, 0xbf, 0x2f, 0x05, 0x13, 0x3a, 0x29, 0x03, 0xac, 0xfb, 0x3a, 0xf1,
  0x39, 0x13, 0xaf, 0xfd, 0xe4, 0xf2, 0xed, 0xcb, 0x2a, 0x9d, 0xaa, 0xe0,
  0x22, 0xc3, 0x94, 0x21, 0xef, 0x10, 0x1f, 0x9c, 0xa5, 0x0c, 0x3e, 0x8f,
  0xa5, 0x20, 0x19, 0xf6, 0x28, 0x06, 0xde, 0xb0, 0xae, 0x3f, 0x18, 0x23,
  0xaf, 0x2b, 0x3d, 0x3b, 0xf6, 0x25, 0xda, 0x1c, 0x99, 0x28, 0xce, 0xc9,
  0xdc, 0xc6, 0x42, 0xd2, 0x2e, 0x99, 0xb1, 0xdc, 0xc8, 0xb9, 0x9e, 0xf8,
  0x39, 0x99, 0xa6, 0x9c, 0x95, 0x37, 0xd8, 0xfe, 0xe9, 0x97, 0xd4, 0xaa,
  0x35, 0x2f, 0x96, 0xde, 0xae, 0xac, 0x4d, 0xbf, 0x34, 0xa4, 0x19, 0x28,
  0xba, 0xe9, 0xd9, 0xc2, 0xe6, 0xf8, 0x08, 0x98, 0x02, 0xa1, 0x8b, 0x30,
  0x1f, 0x20, 0xde, 0xd6, 0x35, 0x93, 0x06, 0xaa, 0x81, 0xda, 0x35, 0x24,
  0x12, 0xd5, 0xb3, 0x3e, 0xbe, 0x3d, 0xeb, 0xa6, 0x0c, 0x8a, 0x42, 0xbc,
  0x96, 0x9d, 0xae, 0xe2, 0xfb, 0x02, 0x3b, 0xe3, 0xe0, 0x94, 0x12, 0x15,
  0x26, 0x33, 0xe8, 0x11, 0x99, 0xb8, 0x0e, 0x03, 0x2f, 0x09, 0xed, 0xfd,
  0x0b, 0x14, 0xf6, 0x00, 0x0d, 0xef, 0xd9, 0xfe, 0x07, 0xf9, 0x05, 0xf0,
  0xfc, 0x11, 0x41, 0x0f, 0x14, 0x49, 0x7f, 0xfb, 0xf8, 0x04, 0x31, 0x04,
  0x03, 0xf6, 0xf5, 0x09, 0x06, 0xfc, 0xf9, 0x08, 0xf8, 0xe9, 0x0f, 0x01,
  0xf6, 0xd2, 0xf1, 0xfa, 0xf4, 0xcb, 0xdb, 0xef, 0x10, 0x19, 0x1c, 0xf8,
  0x0d, 0xe7, 0xf1, 0x11, 0x03, 0xf9, 0xd4, 0x0d, 0x03, 0x15, 0x19, 0x12,
  0xf5, 0x38, 0x4a, 0xf6, 0x00, 0x48, 0x68, 0x0a, 0xeb, 0x29, 0x33, 0xf9,
  0xf4, 0xef, 0xf7, 0xfd, 0xff, 0xfc, 0xef, 0x17, 0xf9, 0xfe, 0xe6, 0xfe,
  0x06, 0xf7, 0xf3, 0x02, 0x03, 0x0b, 0xe0, 0x0f, 0xe6, 0xf9, 0xe7, 0xf6,
  0x04, 0xd2, 0xb6, 0xf7, 0x01, 0x18, 0x35, 0xff, 0x02, 0x21, 0x25, 0x00,
  0x22, 0x10, 0xd6, 0x06, 0x0d, 0x2a, 0xe8, 0xf6, 0x0f, 0x17, 0xf2, 0xe4,
  0x46, 0x15, 0x0c, 0xfc, 0x0e, 0x1e, 0x1f, 0x05, 0x0f, 0x13, 0x30, 0xf4,
  0x22, 0xe5, 0xef, 0xfa, 0x22, 0x0a, 0x05, 0x0d, 0xf9, 0xef, 0xf8, 0x17,
  0x07, 0xe7, 0xd8, 0xed, 0xf4, 0x1e, 0xea, 0x00, 0x02, 0x01, 0xe4, 0xef,
  0xfa, 0xf7, 0xf5, 0x27, 0xf4, 0xeb, 0x10, 0x0f, 0xf7, 0x02, 0x02, 0x0e,
  0xf0, 0xf0, 0xf7, 0x0a, 0x08, 0x23, 0xe6, 0x0e, 0x24, 0x19, 0xf6, 0x00,
  0x17, 0x25, 0x04, 0xf6, 0x04, 0xdd, 0xf5, 0x07, 0xf7, 0xef, 0x07, 0x0e,
  0x11, 0xc0, 0xd4, 0x13, 0xde, 0xe7, 0xdd, 0x04, 0xf7, 0xf6, 0xf6, 0x18,
  0x14, 0x09, 0x04, 0x09, 0x07, 0x17, 0x1d, 0x1d, 0xf9, 0xe6, 0xd8, 0xff,
  0x0a, 0xf1, 0xf9, 0x0e, 0x11, 0x04, 0x03, 0x0a, 0xe2, 0xf7, 0xf0, 0x1e,
  0xed, 0x02, 0x35, 0x23, 0xe1, 0xe5, 0x0f, 0x13, 0x0c, 0xeb, 0x0e, 0x12,
  0x09, 0xec, 0x0e, 0x2d, 0x06, 0x2c, 0x1d, 0x1d, 0x03, 0xfb, 0xf6, 0x21,
  0xd1, 0xe4, 0x19, 0xec, 0xff, 0xfb, 0x2b, 0xfd, 0xdd, 0x0a, 0xf4, 0x0d,
  0xde, 0x09, 0x0f, 0xfa, 0x37, 0x12, 0xf6, 0xe7, 0x00, 0xb2, 0x9a, 0xec,
  0x18, 0x08, 0x21, 0xe8, 0x12, 0x2a, 0x52, 0xf6, 0xea, 0xe3, 0xc6, 0xe4,
  0xd3, 0xae, 0xaa, 0x06, 0xe4, 0x0b, 0xec, 0xee, 0x20, 0x2b, 0x23, 0x04,
  0x11, 0x08, 0x09, 0x10, 0xdc, 0xfa, 0xdd, 0x08, 0xf1, 0xee, 0x26, 0xfd,
  0xfb, 0xe5, 0x03, 0x0d, 0x18, 0xee, 0x01, 0x32, 0x08, 0xee, 0xb2, 0x13,
  0x2d, 0xe4, 0xe4, 0x1d, 0x19, 0x1d, 0x18, 0x28, 0xd9, 0xe8, 0xf9, 0xf2,
  0xde, 0xbd, 0xea, 0xd7, 0xfa, 0x0d, 0x09, 0xe4, 0x15, 0xfa, 0xe5, 0x16,
  0xec, 0xc9, 0xe4, 0xeb, 0xea, 0x24, 0x4d, 0xc5, 0xdf, 0x1c, 0x00, 0xe1,
  0x0b, 0xde, 0xcb, 0xfb, 0xf8, 0x14, 0x36, 0xc9, 0xdf, 0xe0, 0x28, 0xfd,
  0xf7, 0x11, 0xce, 0x1f, 0xcf, 0x0f, 0xf8, 0x0c, 0x07, 0xe8, 0xe7, 0x12,
  0x34, 0x2a, 0xd8, 0x32, 0xdc, 0x39, 0x00, 0x17, 0xe0, 0x31, 0xf5, 0x0b,
  0x0b, 0x18, 0x25, 0xf8, 0x0b, 0xf3, 0x27, 0xd5, 0x15, 0xf9, 0x10, 0xdd,
  0x06, 0xea, 0x16, 0x09, 0xea, 0x03, 0xef, 0xf3, 0x0e, 0xe5, 0xf8, 0xf4,
  0x03, 0xf7, 0x0d, 0xfb, 0x36, 0x0f, 0x19, 0x05, 0x02, 0xf2, 0x1e, 0x08,
  0xe0, 0xd5, 0xe8, 0xe8, 0xa9, 0xba, 0x81, 0x0f, 0xf1, 0x3d, 0x18, 0x18,
  0x0e, 0xf8, 0xf8, 0xef, 0xca, 0x31, 0xea, 0xc0, 0xf0, 0x0e, 0xf2, 0xf3,
  0x18, 0xfe, 0x1c, 0xf2, 0xfd, 0x04, 0x01, 0x15, 0x00, 0x97, 0xb3, 0xcb,
  0x28, 0x0e, 0x49, 0x19, 0x0a, 0x2a, 0x2a, 0x17, 0xf5, 0x16, 0x06, 0x25,
  0x2e, 0x0c, 0x26, 0x07, 0x1b, 0xe7, 0xcf, 0xa3, 0x3b, 0x1b, 0xf3, 0xec,
  0xe5, 0x45, 0x1d, 0x04, 0x0e, 0x3d, 0x02, 0x0e, 0x1d, 0xcf, 0xff, 0xf7,
  0x33, 0x07, 0x39, 0x09, 0x0e, 0xf3, 0x06, 0x05, 0x14, 0x15, 0xf3, 0xf3,
  0x13, 0x10, 0x05, 0xec, 0x10, 0x34, 0x10, 0xd6, 0x0d, 0x14, 0x58, 0xf8,
  0x11, 0x5c, 0x7f, 0x2d, 0xeb, 0x0c, 0x19, 0x11, 0x0a, 0xea, 0xf6, 0x23,
  0xff, 0x0c, 0x08, 0xec, 0xff, 0x00, 0x0d, 0x00, 0x04, 0xe4, 0xf4, 0xfd,
  0xf7, 0xd5, 0xd6, 0xfe, 0x0e, 0x2c, 0x1b, 0x08, 0xf2, 0xfb, 0xe3, 0xea,
  0x03, 0xe6, 0xb2, 0x07, 0x24, 0x14, 0x12, 0x1f, 0x2f, 0x68, 0x5a, 0x18,
  0x1d, 0x4d, 0x6d, 0x14, 0xdd, 0x12, 0x1e, 0xe9, 0xef, 0xfc, 0x0f, 0x0e,
  0x00, 0x03, 0xe5, 0xef, 0x12, 0xf2, 0xe6, 0xf0, 0xfb, 0xf7, 0x04, 0xfd,
  0x27, 0x20, 0x09, 0xf3, 0xf6, 0xd9, 0xdd, 0xef, 0xe1, 0xce, 0xbf, 0xeb,
  0x25, 0x3f, 0x56, 0x0e, 0x16, 0x35, 0x22, 0xdd, 0x1c, 0xf3, 0xdf, 0xee,
  0x32, 0x4f, 0xec, 0xe3, 0x52, 0x2e, 0x05, 0xdd, 0x40, 0x16, 0x14, 0xd1,
  0xfe, 0x2d, 0x19, 0x1f, 0xf4, 0x22, 0x3c, 0xe7, 0x43, 0xf9, 0xf8, 0xea,
  0x14, 0x0d, 0x3b, 0x22, 0x15, 0xf3, 0x0c, 0x0d, 0xf8, 0xe7, 0x08, 0x01,
  0x05, 0x20, 0x0b, 0x0a, 0x0c, 0x14, 0xe3, 0xf9, 0x01, 0xd0, 0xff, 0x22,
  0xdd, 0xf0, 0x19, 0x20, 0xf6, 0x0a, 0x00, 0x04, 0xf1, 0xf2, 0xd8, 0xe5,
  0x0d, 0x1a, 0xf6, 0x07, 0x45, 0x12, 0x23, 0xe8, 0x23, 0x2a, 0x2e, 0x07,
  0x01, 0xec, 0xf1, 0xee, 0xfa, 0xe8, 0x0b, 0xfd, 0x17, 0xab, 0xdd, 0xf4,
  0xee, 0xfb, 0xf9, 0xfe, 0x02, 0x06, 0x07, 0x0a, 0x06, 0x1b, 0x33, 0x07,
  0x03, 0x21, 0x00, 0x0c, 0xfc, 0xcc, 0xc5, 0xfd, 0x12, 0xf9, 0x0f, 0x18,
  0xf7, 0xfe, 0x22, 0x0c, 0xe7, 0x05, 0x0a, 0x10, 0xfa, 0xeb, 0x2b, 0x20,
  0xf3, 0xf0, 0x14, 0x37, 0x18, 0xd3, 0xff, 0x23, 0x0c, 0xfe, 0x18, 0x2c,
  0xf2, 0x1a, 0xee, 0xe5, 0x05, 0xfa, 0xe9, 0x1f, 0xe8, 0xdc, 0xef, 0xd2,
  0xc9, 0xd3, 0x02, 0xdd, 0xd2, 0xed, 0x07, 0x08, 0xea, 0x01, 0x11, 0xec,
  0x14, 0x0b, 0x03, 0x0f, 0x13, 0xff, 0xf7, 0x18, 0x27, 0x1e, 0x37, 0xfe,
  0x0a, 0x15, 0x3d, 0x0f, 0xf7, 0xf0, 0xfb, 0xf1, 0xed, 0xf0, 0xe5, 0x0b,
  0xfa, 0x11, 0x04, 0xf5, 0xf1, 0xec, 0xe9, 0xfa, 0x01, 0x15, 0x09, 0x2b,
  0x0f, 0x17, 0x32, 0x15, 0x00, 0x29, 0x59, 0x22, 0x04, 0x05, 0xfe, 0x08,
  0x07, 0xd7, 0xdc, 0xfb, 0xf9, 0xc2, 0x81, 0xd5, 0x03, 0xda, 0xc7, 0x03,
  0x09, 0xe9, 0xe0, 0xf8, 0xf6, 0x12, 0x12, 0x06, 0xf3, 0x02, 0x0f, 0xfb,
  0xe5, 0xf0, 0x08, 0x0c, 0xf7, 0xdc, 0xe5, 0x02, 0x07, 0xf6, 0x0e, 0x18,
  0x06, 0x3c, 0x47, 0x07, 0xef, 0xf7, 0x03, 0x06, 0xf6, 0xcc, 0xe5, 0xfe,
  0xf2, 0xef, 0x2c, 0xd5, 0xd5, 0xd8, 0x0e, 0xec, 0xe5, 0x06, 0xe3, 0x07,
  0xe6, 0x06, 0x22, 0x03, 0x06, 0xea, 0xda, 0xe6, 0x22, 0x0d, 0xe2, 0x0d,
  0xeb, 0x15, 0x0a, 0x15, 0x13, 0x27, 0x0d, 0x15, 0x08, 0x0a, 0x1d, 0xff,
  0x03, 0x1b, 0x33, 0xf9, 0xf8, 0xf6, 0x0e, 0x09, 0xf8, 0x0a, 0x24, 0x03,
  0x04, 0x19, 0x06, 0xfd, 0x00, 0x00, 0x15, 0x1a, 0xed, 0x01, 0xfb, 0x05,
  0xf4, 0xf8, 0x19, 0xfb, 0x18, 0xf2, 0x1f, 0xff, 0xe5, 0x06, 0xff, 0x0c,
  0x09, 0xe8, 0x12, 0x08, 0x05, 0x21, 0x2a, 0xfa, 0x0c, 0x0a, 0xfc, 0x0c,
  0xc9, 0x23, 0x0d, 0xee, 0x20, 0x38, 0x09, 0x18, 0xf4, 0xf9, 0xe9, 0xf9,
  0xf1, 0x06, 0xf8, 0x0e, 0xfd, 0xe8, 0xcf, 0xf4, 0xfe, 0x15, 0x19, 0x07,
  0x02, 0xff, 0xf1, 0x00, 0x14, 0xed, 0xf7, 0xfd, 0x13, 0xfa, 0x19, 0xfe,
  0xf9, 0xd3, 0xb8, 0xce, 0x26, 0x16, 0xfd, 0x0f, 0x01, 0x26, 0x02, 0x0b,
  0xff, 0x19, 0xe1, 0xe4, 0xfa, 0xfd, 0xfd, 0xcd, 0x14, 0x11, 0x16, 0xfc,
  0xf1, 0xef, 0x40, 0x20, 0xb3, 0x00, 0xc3, 0xbe, 0xa9, 0x40, 0x91, 0xc6,
  0x9a, 0xaf, 0xce, 0x96, 0xd3, 0xdd, 0x04, 0x9b, 0x96, 0x24, 0x39, 0xc3,
  0x9b, 0xa0, 0x07, 0xb1, 0x13, 0x2b, 0x04, 0x22, 0x4e, 0x57, 0x60, 0xf5,
  0x0d, 0xf7, 0x38, 0x2f, 0xe2, 0xf8, 0x8c, 0xe6, 0xa0, 0xf9, 0xd4, 0x12,
  0xaa, 0xc7, 0x13, 0x2f, 0x9d, 0x9e, 0xb7, 0xc4, 0x30, 0xa9, 0x3c, 0x50,
  0xea, 0x4b, 0x0a, 0xd7, 0xf5, 0xda, 0xb9, 0x95, 0xba, 0xf6, 0x2a, 0xf3,
  0xde, 0xa3, 0x47, 0xf1, 0xa8, 0x82, 0x0c, 0x25, 0xa2, 0xd2, 0xb1, 0x4b,
  0xbe, 0x38, 0x98, 0x8a, 0xfe, 0x51, 0xc5, 0x36, 0xe4, 0x9a, 0xbe, 0x44,
  0xb8, 0x1b, 0x32, 0x0e, 0xab, 0xd8, 0x3f, 0x47, 0x57, 0xb1, 0xee, 0xa6,
  0xd8, 0xd0, 0x05, 0xf4, 0x29, 0x0e, 0x52, 0x91, 0xb5, 0x21, 0xd9, 0xfc,
  0xe8, 0xaf, 0x3f, 0xf7, 0x30, 0x96, 0x55, 0x28, 0x50, 0x88, 0xe1, 0xd9,
  0x04, 0x03, 0xe5, 0xca, 0x41, 0xfe, 0xc9, 0x81, 0xfc, 0xca, 0x82, 0x0a,
  0x8f, 0xa6, 0xee, 0xce, 0x22, 0x5d, 0xa8, 0xf8, 0xd2, 0x02, 0x2d, 0x1d,
  0x5e, 0xa7, 0x18, 0x08, 0xd9, 0x2f, 0x9c, 0x07, 0x8f, 0xc2, 0xe6, 0xce,
  0x11, 0x59, 0x49, 0xb1, 0xa7, 0xfa, 0xe4, 0x91, 0x22, 0xbd, 0xd6, 0xd7,
  0xaf, 0xa0, 0xc7, 0x01, 0xba, 0x01, 0x08, 0x41, 0x60, 0x0d, 0xc1, 0x00,
  0x97, 0xfd, 0xe8, 0x1f, 0x34, 0xf3, 0xda, 0xf5, 0xcc, 0x45, 0x8c, 0x85,
  0x9e, 0x49, 0xe0, 0xe6, 0xb8, 0xa7, 0xb8, 0x24, 0xe0, 0xd0, 0xcc, 0x93,
  0xd4, 0x82, 0x04, 0x2a, 0x1a, 0xc7, 0xe8, 0xa2, 0x42, 0x45, 0x16, 0xe0,
  0xe5, 0x89, 0xd2, 0xdd, 0xb4, 0xcb, 0x23, 0xe8, 0x13, 0x18, 0xef, 0xf7,
  0x91, 0x0e, 0x41, 0x1c, 0x10, 0x44, 0x97, 0xa4, 0xe5, 0x3d, 0x12, 0xaa,
  0xa3, 0xce, 0xcd, 0x3c, 0x32, 0x18, 0xf4, 0xf5, 0x1b, 0xf7, 0xdb, 0xf0,
  0x09, 0xfe, 0xd0, 0xed, 0x05, 0x08, 0xf7, 0x10, 0xee, 0x26, 0x32, 0x0c,
  0x20, 0x50, 0x7f, 0x0a, 0xed, 0x06, 0x20, 0x0b, 0xf1, 0xf1, 0xd9, 0x04,
  0x10, 0x03, 0xfb, 0x16, 0x1a, 0x18, 0x1f, 0xff, 0xf2, 0xe2, 0xfe, 0x19,
  0x01, 0xe5, 0x07, 0xf7, 0x20, 0x26, 0x0f, 0x10, 0x10, 0x01, 0xd5, 0xff,
  0xfd, 0xf6, 0x9f, 0xfa, 0x1a, 0x17, 0x14, 0xfa, 0xfd, 0x42, 0x59, 0x03,
  0x05, 0x54, 0x63, 0x28, 0xdf, 0x2b, 0x59, 0xfd, 0xf5, 0xf2, 0x1c, 0xec,
  0x23, 0xff, 0xe3, 0x04, 0x11, 0x14, 0xed, 0xfa, 0x14, 0x0d, 0xe7, 0x13,
  0xfa, 0x1b, 0xf9, 0x10, 0xf9, 0xf1, 0xec, 0x0d, 0x0e, 0xdb, 0xbf, 0xf8,
  0x0c, 0x32, 0x2f, 0x27, 0xfb, 0x27, 0x41, 0x18, 0x16, 0x00, 0xdb, 0x11,
  0x31, 0x23, 0xf1, 0xfb, 0x22, 0x1a, 0xf2, 0x02, 0x32, 0x2f, 0xf7, 0xfd,
  0x0b, 0x09, 0x33, 0x09, 0xec, 0x13, 0x3f, 0xf5, 0x39, 0xe6, 0xf7, 0x02,
  0xfb, 0xed, 0x08, 0xf9, 0xfb, 0x01, 0xd1, 0x1b, 0x02, 0xfa, 0xc5, 0xfa,
  0xf8, 0x14, 0xe6, 0xf0, 0x08, 0x05, 0xd8, 0xea, 0x05, 0xe6, 0xe8, 0x13,
  0xf1, 0xeb, 0x0c, 0x15, 0x12, 0x19, 0x03, 0x0d, 0xe6, 0xf2, 0x09, 0x06,
  0x0e, 0x29, 0x04, 0x0d, 0x30, 0x05, 0x1d, 0xf9, 0x1f, 0x23, 0x00, 0x19,
  0x06, 0xd7, 0xda, 0xf7, 0x18, 0x06, 0xf6, 0x0a, 0x38, 0xbb, 0xe4, 0x16,
  0xee, 0xd9, 0xe6, 0xef, 0x0a, 0x25, 0x16, 0x09, 0xfa, 0x08, 0xf4, 0x11,
  0x07, 0x2d, 0x27, 0x20, 0x05, 0xff, 0xe1, 0x05, 0x05, 0xe2, 0x05, 0x01,
  0x0b, 0xf3, 0x0c, 0xf9, 0xf2, 0x07, 0xd0, 0x1c, 0x13, 0x14, 0x68, 0x21,
  0xf0, 0xfb, 0x32, 0x19, 0x06, 0xdf, 0xf7, 0x08, 0xf6, 0xf5, 0x1b, 0x3c,
  0xf5, 0x29, 0x2c, 0x34, 0x13, 0x00, 0x18, 0x28, 0xfc, 0xfc, 0xe1, 0x1a,
  0xed, 0xf5, 0x93, 0xb0, 0xe7, 0xeb, 0x9d, 0x0c, 0xf4, 0xb1, 0x24, 0x21,
  0xc4, 0xec, 0xd3, 0x2b, 0xf4, 0xe8, 0xe7, 0x14, 0x07, 0x0a, 0x0b, 0x34,
  0xc8, 0x15, 0x23, 0xff, 0x01, 0x12, 0xc7, 0xed, 0xbb, 0xa9, 0xee, 0xde,
  0x20, 0xe3, 0x97, 0x97, 0xc7, 0x05, 0xe5, 0xf4, 0x98, 0xb8, 0xd2, 0x25,
  0xdc, 0x1c, 0xb4, 0xbb, 0xad, 0x8b, 0xd3, 0xb6, 0x0c, 0x85, 0x33, 0x08,
  0xd1, 0x09, 0x05, 0xbb, 0x13, 0x0d, 0x04, 0x29, 0xae, 0xc7, 0xb7, 0xd2,
  0xfb, 0xc3, 0x9f, 0x0f, 0x9d, 0x85, 0xad, 0xd5, 0xf7, 0x01, 0xd8, 0xc5,
  0xfc, 0xa9, 0xa3, 0x98, 0xd4, 0x01, 0x12, 0xcb, 0x12, 0x25, 0xfa, 0xc8,
  0xcb, 0x0c, 0xf2, 0xcd, 0x1a, 0x1d, 0xc4, 0xb7, 0xbe, 0x36, 0xdc, 0x8d,
  0x1d, 0x3f, 0xa4, 0x9a, 0xbb, 0x3a, 0xa9, 0x31, 0xb0, 0x1a, 0x3b, 0xf3,
  0x00, 0x0c, 0xa2, 0x8f, 0x13, 0xa9, 0x99, 0x18, 0x16, 0x9f, 0xd3, 0xaa,
  0x2c, 0x23, 0x1e, 0xed, 0x24, 0xc4, 0x2e, 0x8e, 0xbb, 0xef, 0xe8, 0xe5,
  0xf3, 0x1b, 0xa4, 0x33, 0xf9, 0xba, 0xd5, 0xdf, 0xc2, 0x02, 0xa2, 0x38,
  0x44, 0x25, 0xdf, 0xf8, 0xb6, 0x2e, 0xcf, 0x26, 0xd5, 0xdc, 0xc2, 0xe8,
  0xee, 0x00, 0xd6, 0x28, 0x35, 0x16, 0x09, 0xd3, 0xb7, 0xf0, 0x11, 0xb2,
  0x26, 0xa3, 0xaa, 0xc3, 0x92, 0x20, 0x1c, 0xdc, 0xc0, 0x23, 0x2a, 0xa2,
  0x16, 0x22, 0x1e, 0xbe, 0xc0, 0x11, 0xd6, 0x2b, 0xab, 0xbb, 0xd1, 0xfb,
  0x12, 0x2b, 0x14, 0xf8, 0xe2, 0xce, 0x97, 0xe1, 0xda, 0x0c, 0x27, 0xee,
  0x25, 0xa9, 0xd0, 0x14, 0x2c, 0x2d, 0x8c, 0xe8, 0xde, 0x11, 0xa6, 0xde,
  0x2e, 0xab, 0xa1, 0x3b, 0xfd, 0xbd, 0x0d, 0xf6, 0x2d, 0x16, 0xcf, 0x0a,
  0x81, 0x14, 0xf8, 0xb0, 0xc5, 0xe3, 0x16, 0xf7, 0xc2, 0x21, 0xce, 0x16,
  0xbf, 0xf5, 0xfe, 0xf2, 0xe0, 0x00, 0x22, 0xfb, 0xcb, 0x11, 0x25, 0xf8,
  0x0b, 0xe7, 0x02, 0xe2, 0x29, 0x07, 0xd4, 0xf9, 0xf8, 0xb4, 0x93, 0xf9,
  0x33, 0xeb, 0xff, 0x05, 0xed, 0x0d, 0x39, 0x0a, 0xed, 0x14, 0x18, 0xf8,
  0xe6, 0xeb, 0xf5, 0x04, 0x0c, 0x29, 0x23, 0xf1, 0xff, 0x25, 0x1a, 0xfc,
  0xfe, 0xe0, 0xf4, 0x1f, 0x0c, 0x0a, 0x26, 0x08, 0x21, 0x1d, 0x7f, 0xf9,
  0x04, 0xca, 0x03, 0x1c, 0xfa, 0xab, 0xd2, 0x1d, 0xea, 0xa7, 0x95, 0xfb,
  0x30, 0xed, 0x93, 0x1b, 0xfd, 0x16, 0xf2, 0x0c, 0xda, 0x09, 0x4c, 0x14,
  0x0a, 0xd6, 0x1c, 0x08, 0xf4, 0x11, 0x23, 0xf5, 0xf4, 0xd6, 0xfa, 0x0a,
  0x1a, 0x10, 0x2b, 0x08, 0xf6, 0x48, 0x4e, 0xfa, 0x0e, 0xcf, 0xec, 0xfb,
  0x1f, 0xd8, 0xb4, 0xf4, 0xee, 0xfe, 0x49, 0xd0, 0xf2, 0xc8, 0x0c, 0xed,
  0xf3, 0xdf, 0x0f, 0x17, 0xcd, 0xe1, 0x0a, 0x19, 0xf0, 0xec, 0xd6, 0xe2,
  0x21, 0xf4, 0xaf, 0xf8, 0xc3, 0x29, 0x04, 0x20, 0x07, 0x15, 0x19, 0xe8,
  0xf0, 0xff, 0x41, 0xfa, 0x12, 0x05, 0x46, 0x0c, 0x1a, 0xdf, 0x12, 0x23,
  0xf0, 0x09, 0x3b, 0x14, 0x05, 0x23, 0x14, 0xdb, 0x0e, 0x13, 0x0e, 0x05,
  0x0e, 0xf3, 0x07, 0x13, 0x23, 0xf1, 0x0f, 0x14, 0x08, 0x05, 0x22, 0x18,
  0xb3, 0x0b, 0xff, 0x08, 0xef, 0xc4, 0x1b, 0xf1, 0x0d, 0x51, 0x3f, 0x07,
  0xfd, 0x27, 0x18, 0xf3, 0xd9, 0x54, 0x2e, 0xe8, 0x15, 0x3f, 0x15, 0x24,
  0x18, 0xe6, 0x01, 0xde, 0x01, 0x22, 0x20, 0x22, 0xfb, 0xb2, 0xcd, 0xee,
  0x0e, 0x2b, 0x4c, 0x0c, 0x12, 0x04, 0x0b, 0x11, 0x0d, 0x06, 0xf6, 0x25,
  0x1e, 0x12, 0x4d, 0x12, 0x15, 0xd3, 0x92, 0xe0, 0x3b, 0x13, 0xeb, 0xfe,
  0xda, 0x18, 0xef, 0xf4, 0xe9, 0x2f, 0x1e, 0xbd, 0xfe, 0xc9, 0x02, 0xbe,
  0x0c, 0x17, 0x0e, 0xc4, 0x22, 0x01, 0xb1, 0x95, 0x4a, 0xdb, 0xb3, 0xbb,
  0x38, 0xeb, 0xc5, 0x4b, 0x22, 0x95, 0x89, 0x1d, 0xdb, 0x12, 0x0b, 0x33,
  0xb4, 0xee, 0xa3, 0x3b, 0xce, 0x5a, 0x04, 0xf7, 0xee, 0xa0, 0x2b, 0x61,
  0x29, 0xca, 0xe7, 0x1e, 0x9b, 0xb0, 0x09, 0xb7, 0x8e, 0x0b, 0x87, 0xea,
  0x88, 0xd6, 0x29, 0xbc, 0xcc, 0x65, 0xc2, 0xa8, 0x18, 0xb5, 0x63, 0x8e,
  0xd7, 0xea, 0xe6, 0x96, 0x8a, 0xc0, 0xd6, 0x0f, 0x8d, 0xc0, 0x3d, 0x2e,
  0x9b, 0xd4, 0xc9, 0x15, 0x2e, 0xa8, 0xb3, 0x4c, 0x1b, 0xe5, 0xde, 0xa7,
  0x2c, 0x9f, 0x86, 0x81, 0x92, 0xf5, 0xb2, 0x1c, 0x49, 0xa2, 0x21, 0x89,
  0x0a, 0xae, 0xdc, 0xf3, 0x15, 0xd7, 0xee, 0x3e, 0xe9, 0xd8, 0xf5, 0xdc,
  0x94, 0xec, 0x1d, 0x47, 0xb4, 0x4a, 0xe9, 0x85, 0x81, 0xa2, 0xe2, 0x9e,
  0x89, 0x8a, 0x13, 0x06, 0xc9, 0x3a, 0xc4, 0xa0, 0x86, 0x83, 0x3c, 0xad,
  0x94, 0xa1, 0xed, 0xd0, 0x1e, 0x28, 0x99, 0x36, 0xce, 0xe7, 0x0f, 0x23,
  0x16, 0x28, 0x4b, 0xa7, 0xc4, 0xe0, 0x92, 0x88, 0x41, 0x46, 0xe3, 0xe7,
  0xf1, 0xbb, 0xa3, 0x61, 0xea, 0xa2, 0x0b, 0x87, 0x9a, 0xaa, 0x21, 0xc8,
  0x46, 0xf4, 0x23, 0x8c, 0x21, 0x05, 0xfa, 0x13, 0x47, 0xdd, 0x31, 0xf4,
  0x45, 0xc3, 0xa2, 0xb3, 0x2c, 0x10, 0xb6, 0x9b, 0xf6, 0xcd, 0x5a, 0x4e,
  0x02, 0x3b, 0x1b, 0x05, 0x98, 0x4c, 0xfb, 0x48, 0x9c, 0x15, 0x9b, 0x41,
  0xc1, 0x01, 0x0f, 0x0b, 0xa6, 0x26, 0xf2, 0x4e, 0x89, 0x84, 0x47, 0x28,
  0x43, 0xb1, 0xe8, 0xda, 0x9b, 0x2c, 0xcb, 0xba, 0x27, 0xb3, 0x37, 0x97,
  0x12, 0x43, 0xaa, 0xe0, 0x26, 0xab, 0xee, 0xdd, 0x1c, 0xe4, 0xc5, 0xca,
  0x2f, 0x31, 0xbe, 0xc2, 0xad, 0x3a, 0x2f, 0x48, 0xef, 0xfa, 0xbf, 0x22,
  0xac, 0x49, 0x18, 0x43, 0x82, 0xd1, 0x0b, 0xfa, 0xcb, 0x14, 0xf4, 0x03,
  0xdd, 0x05, 0x1c, 0xf1, 0xf2, 0x13, 0x25, 0x14, 0x03, 0xf7, 0x0b, 0xf6,
  0x2f, 0xef, 0xc5, 0xf5, 0x0b, 0xbb, 0x81, 0xea, 0x24, 0x06, 0x0a, 0xfb,
  0x18, 0x28, 0x3b, 0x07, 0xeb, 0x19, 0x16, 0xf6, 0xeb, 0xe4, 0xe7, 0xf7,
  0x15, 0x34, 0x11, 0x04, 0xea, 0x33, 0x08, 0xf7, 0x0b, 0xe6, 0xf4, 0x05,
  0x11, 0x1c, 0x37, 0xfd, 0x09, 0x1a, 0x7b, 0xf9, 0xf2, 0xe3, 0xf6, 0x0c,
  0xf4, 0xb6, 0xbc, 0x13, 0x09, 0xb4, 0xb5, 0xea, 0x16, 0xee, 0xae, 0x28,
  0x14, 0x1f, 0xed, 0x13, 0xfe, 0x08, 0x41, 0xfe, 0x06, 0xf9, 0x17, 0xff,
  0xf3, 0x02, 0x0f, 0xf6, 0x0b, 0xf2, 0xf9, 0xfa, 0x00, 0x06, 0x37, 0x16,
  0xf7, 0x41, 0x54, 0x0a, 0x04, 0xe0, 0xe5, 0xda, 0x07, 0xd0, 0xb4, 0x0d,
  0xe8, 0xf4, 0x3e, 0xe0, 0xd9, 0xd1, 0x0b, 0x21, 0xc8, 0x0b, 0x16, 0x17,
  0xcb, 0xcd, 0xee, 0x1c, 0x05, 0xf7, 0xce, 0x05, 0x2b, 0x1c, 0xc5, 0x2d,
  0xd2, 0x27, 0x09, 0x11, 0xff, 0x30, 0x22, 0x01, 0xf9, 0x02, 0x34, 0x03,
  0x1c, 0x13, 0x3c, 0x19, 0x16, 0xe7, 0x2a, 0x09, 0xf4, 0x21, 0x29, 0xfe,
  0xf7, 0x2e, 0x0f, 0xdd, 0x07, 0xf9, 0x08, 0x0f, 0xf2, 0xe8, 0xe9, 0x0a,
  0x03, 0xfc, 0x05, 0x05, 0x00, 0xe0, 0x22, 0x12, 0xd7, 0x19, 0x11, 0xfb,
  0xf1, 0xdb, 0xf9, 0xef, 0x19, 0x3a, 0x23, 0x06, 0x17, 0xfb, 0xf7, 0x0c,
  0xc9, 0x55, 0x16, 0xfc, 0x38, 0x2c, 0x02, 0x15, 0x0c, 0x00, 0xf5, 0xd7,
  0x01, 0x1f, 0x1f, 0x19, 0xfb, 0xc0, 0xd2, 0x0a, 0x1e, 0x24, 0x49, 0x06,
  0x18, 0x2a, 0x0e, 0x00, 0x1d, 0x26, 0xf1, 0x1e, 0x1d, 0x32, 0x40, 0xfc,
  0x0b, 0xe2, 0xa3, 0xd6, 0x19, 0x1d, 0xf3, 0xfd, 0xe0, 0x3d, 0x10, 0xfa,
  0x07, 0x43, 0x13, 0xea, 0x01, 0xe5, 0xe4, 0xf0, 0x07, 0x16, 0x15, 0xd2,
  0xcf, 0x11, 0x1b, 0xec, 0xfe, 0xfa, 0x33, 0x19, 0xe6, 0xf8, 0x35, 0x1e,
  0xe8, 0x05, 0x26, 0x08, 0x11, 0xef, 0xc9, 0xf0, 0xf9, 0xab, 0x81, 0xfa,
  0x3d, 0xeb, 0xf2, 0x0b, 0x07, 0x15, 0x34, 0xef, 0x05, 0x10, 0x07, 0xe5,
  0xf7, 0xf0, 0x00, 0xf6, 0x07, 0x21, 0x17, 0x02, 0x02, 0x3d, 0xf4, 0x02,
  0xf0, 0xe7, 0xe7, 0x06, 0x14, 0xff, 0x3d, 0xff, 0x1f, 0x1b, 0x6c, 0x01,
  0x05, 0xf2, 0xfa, 0x14, 0x17, 0xd0, 0xdb, 0xfa, 0xf9, 0xb7, 0x9d, 0xf6,
  0x41, 0xf5, 0xab, 0x13, 0xfa, 0x28, 0x07, 0x13, 0xea, 0x09, 0x44, 0xf8,
  0x0c, 0xe6, 0x1d, 0x1f, 0xf5, 0x10, 0x04, 0x04, 0xed, 0xf2, 0xff, 0x02,
  0x0a, 0x06, 0x27, 0x02, 0xe9, 0x3d, 0x40, 0x1c, 0xf5, 0xea, 0xd5, 0xda,
  0x00, 0xd3, 0xc7, 0xf9, 0xf5, 0xf2, 0x4a, 0x00, 0xed, 0xeb, 0x00, 0x27,
  0xe5, 0x09, 0x06, 0x21, 0xc3, 0xd0, 0x0d, 0xfd, 0x13, 0xf3, 0xda, 0x0b,
  0x15, 0x03, 0xdf, 0x0b, 0xdb, 0x49, 0x1f, 0x1b, 0xf8, 0x1d, 0x09, 0x01,
  0xfd, 0xec, 0x35, 0xea, 0xfc, 0x20, 0x3d, 0xfa, 0x26, 0x08, 0x12, 0x15,
  0x11, 0x26, 0x4c, 0x0f, 0x0b, 0x0e, 0x1d, 0xf5, 0x0d, 0x02, 0xe3, 0xf4,
  0xf8, 0xfb, 0xee, 0xff, 0x18, 0x06, 0xf4, 0xfb, 0x06, 0x03, 0x07, 0x07,
  0xbf, 0x06, 0xe8, 0xf8, 0x02, 0xe7, 0x23, 0xfa, 0x22, 0x46, 0x3a, 0x16,
  0x14, 0x21, 0x05, 0xfb, 0xbf, 0x66, 0x33, 0xee, 0x35, 0x40, 0x21, 0x15,
  0xfc, 0xfb, 0xdf, 0xe5, 0x09, 0x16, 0x23, 0xff, 0x03, 0xc7, 0xc9, 0xfb,
  0x1f, 0x18, 0x3e, 0x06, 0x17, 0x16, 0x0f, 0xfb, 0x06, 0x03, 0x13, 0x13,
  0x2c, 0x12, 0x4a, 0x0a, 0x12, 0xff, 0xbf, 0xda, 0x11, 0x15, 0xd5, 0x01,
  0xde, 0x3f, 0x12, 0xe9, 0xfb, 0x42, 0x1a, 0xbc, 0x0b, 0xfa, 0xf5, 0xda,
  0x01, 0x09, 0x00, 0xf6, 0xb0, 0x00, 0x35, 0x87, 0x11, 0x19, 0xb9, 0x2c,
  0x0d, 0xe5, 0xfd, 0x2b, 0x2c, 0xaa, 0x18, 0xa4, 0x32, 0x3f, 0x9d, 0x16,
  0x22, 0xb1, 0xfc, 0xfd, 0x8b, 0xbb, 0xa8, 0xdf, 0x8d, 0xca, 0x81, 0x8e,
  0xdc, 0xe7, 0x1a, 0x33, 0xb6, 0xa8, 0xef, 0xd5, 0xd8, 0xb4, 0x11, 0x17,
  0xab, 0xbf, 0x0e, 0x1b, 0x38, 0x1a, 0xdc, 0xb6, 0x0b, 0xa1, 0x12, 0xf9,
  0xca, 0xf1, 0x04, 0xf1, 0xeb, 0x02, 0xe3, 0xba, 0xa4, 0xd2, 0x3f, 0xad,
  0xf5, 0x1b, 0x25, 0x2d, 0x0d, 0xaf, 0xe9, 0x30, 0xee, 0x0f, 0xf5, 0xe1,
  0xcd, 0xfb, 0x9e, 0xbf, 0xe0, 0xdf, 0x25, 0x29, 0xe3, 0x0b, 0x17, 0x1f,
  0xf8, 0x23, 0xea, 0xb2, 0x19, 0xde, 0x13, 0xa1, 0xcf, 0x25, 0x09, 0x12,
  0xd6, 0xda, 0xc4, 0xac, 0xc7, 0x20, 0x04, 0xed, 0x9f, 0xdb, 0x27, 0xe1,
  0xb7, 0xbd, 0xe8, 0x8b, 0xba, 0x1e, 0x18, 0x91, 0xce, 0xb6, 0xf3, 0xbf,
  0x25, 0xa7, 0x09, 0xfa, 0xcc, 0xbc, 0xf3, 0xc0, 0x3f, 0xd8, 0x24, 0xd2,
  0x17, 0x30, 0x2e, 0x10, 0xd4, 0xe7, 0x0f, 0x9f, 0xe8, 0x4d, 0x38, 0xb8,
  0xc8, 0x35, 0xd3, 0xa3, 0xeb, 0x36, 0xa4, 0x34, 0x46, 0x96, 0xcf, 0xb6,
  0x1d, 0xf5, 0x19, 0x28, 0x2b, 0xfc, 0xe6, 0xe1, 0xe3, 0xc8, 0xcc, 0x8d,
  0xbf, 0x15, 0xd5, 0xdb, 0xdb, 0xd3, 0x09, 0xcf, 0xf6, 0x3d, 0xd2, 0x11,
  0xe9, 0x00, 0xaf, 0x2d, 0xca, 0x1a, 0x12, 0x9a, 0x4b, 0x23, 0x8d, 0xc5,
  0xe4, 0xc4, 0xac, 0xb9, 0xf4, 0x32, 0x3e, 0xed, 0xb2, 0xfe, 0x3c, 0x29,
  0xc2, 0x2e, 0xe8, 0xc8, 0xb9, 0xb6, 0xbb, 0x0b, 0xc3, 0xd7, 0x31, 0xbb,
  0x25, 0xb5, 0x1e, 0x0e, 0xd6, 0xc5, 0x1e, 0x06, 0x17, 0x3c, 0x01, 0x17,
  0x00, 0xc8, 0xbb, 0xf3, 0xa5, 0x1c, 0xd9, 0x1b, 0x36, 0x3f, 0x2c, 0x37,
  0xba, 0x32, 0xf3, 0x25, 0x9a, 0xe0, 0x0c, 0xd7, 0x1a, 0xf5, 0xff, 0xff,
  0x04, 0x00, 0x00, 0x00, 0x80, 0x04, 0x00, 0x00, 0x4a, 0x2f, 0x0e, 0xbb,
  0x10, 0xe3, 0x39, 0x07, 0xd5, 0x4e, 0xeb, 0xb5, 0xc7, 0xea, 0xff, 0x2a,
  0x13, 0x1e, 0xcf, 0xf9, 0xd2, 0xbe, 0xd2, 0x2f, 0x35, 0x59, 0xf7, 0x23,
  0x27, 0xef, 0x07, 0x0c, 0x2f, 0x16, 0x1b, 0xb5, 0xcf, 0x28, 0x39, 0x1f,
  0x29, 0x45, 0x24, 0x81, 0xc3, 0xe2, 0x21, 0xfc, 0x1f, 0x0a, 0xd8, 0x22,
  0xd3, 0x1f, 0x2a, 0xc9, 0x0a, 0xf3, 0xe5, 0xd2, 0xfe, 0x34, 0x14, 0xcd,
  0x30, 0x1a, 0x02, 0x84, 0xcf, 0xc4, 0xd5, 0xa8, 0xcb, 0xbe, 0xf0, 0x22,
  0x14, 0xed, 0xd7, 0x23, 0x18, 0xbe, 0xcc, 0x02, 0xfa, 0xfd, 0xa9, 0xc9,
  0x7f, 0x0e, 0xe6, 0x2d, 0xcc, 0x0b, 0xe6, 0xac, 0xc1, 0xd8, 0x16, 0x08,
  0x3a, 0xd7, 0x30, 0xfb, 0xd7, 0xd4, 0xd8, 0x13, 0x41, 0xf1, 0xdb, 0xe4,
  0x49, 0xe4, 0x13, 0x03, 0x1d, 0xfd, 0x11, 0xba, 0xd3, 0x12, 0x75, 0xef,
  0x0d, 0xeb, 0x19, 0x21, 0x9b, 0xdc, 0x1a, 0xf4, 0x14, 0xcd, 0xe8, 0xcf,
  0xf8, 0x1b, 0xf1, 0x26, 0xe1, 0x02, 0xde, 0xce, 0xf3, 0x01, 0x0b, 0xfb,
  0x2c, 0x01, 0x2b, 0x2d, 0xff, 0xb8, 0x06, 0xde, 0xbe, 0x33, 0xd6, 0x1d,
  0xa7, 0x99, 0x04, 0x15, 0xd8, 0x19, 0x81, 0x2a, 0x31, 0xed, 0x1d, 0xdf,
  0x26, 0xff, 0x09, 0xf9, 0x31, 0xe0, 0x06, 0x38, 0xc4, 0x3c, 0xdb, 0xf0,
  0x94, 0xf8, 0xe0, 0x31, 0xcb, 0x0e, 0x00, 0x11, 0x68, 0xf7, 0x21, 0x10,
  0x61, 0x2e, 0xfb, 0x21, 0xe9, 0x16, 0xcd, 0x33, 0xd5, 0xd7, 0x1d, 0x48,
  0x85, 0xd0, 0xe3, 0x2c, 0xc6, 0x33, 0x46, 0x51, 0xa1, 0xc8, 0x3a, 0x28,
  0xcc, 0x19, 0xd1, 0x2e, 0xbe, 0xc0, 0x0a, 0xbd, 0x17, 0x1a, 0xe0, 0xe2,
  0xf3, 0xa8, 0x34, 0x01, 0xff, 0x24, 0x32, 0x36, 0xf3, 0x9f, 0x13, 0x22,
  0xe4, 0xf9, 0xc2, 0xe8, 0xcc, 0xf4, 0xa8, 0xc8, 0x28, 0xf6, 0xb5, 0x8d,
  0xc5, 0x17, 0x36, 0x7e, 0x81, 0xec, 0xa8, 0x4f, 0xbd, 0x26, 0xda, 0xef,
  0x28, 0x00, 0x09, 0x54, 0xb2, 0x0f, 0x92, 0x41, 0x51, 0xf6, 0x71, 0xad,
  0xb5, 0xca, 0xe9, 0x14, 0xc9, 0xd4, 0x30, 0x46, 0x6e, 0x44, 0xf0, 0xe9,
  0xb4, 0x33, 0xe2, 0x0d, 0x7f, 0x5f, 0x04, 0xe0, 0xc5, 0x1e, 0xf8, 0x05,
  0x00, 0xf6, 0xfc, 0x13, 0x09, 0xe0, 0xd8, 0xb8, 0x38, 0x0b, 0xe4, 0x20,
  0xef, 0xe3, 0xf7, 0xfd, 0x44, 0x0d, 0x0a, 0x0c, 0x30, 0xd1, 0xc0, 0xd1,
  0xbd, 0xdf, 0x24, 0x03, 0x3b, 0xfd, 0xd3, 0xb5, 0xca, 0x07, 0x10, 0xfc,
  0x04, 0xcc, 0x34, 0xb7, 0xff, 0x1c, 0x28, 0x00, 0x21, 0xe2, 0xcf, 0x96,
  0xe2, 0x36, 0x14, 0xfc, 0x06, 0x18, 0xe2, 0xbb, 0x9e, 0xd9, 0x0b, 0x2c,
  0xf3, 0x1a, 0x26, 0x2e, 0xef, 0xe1, 0x01, 0x04, 0x20, 0x08, 0x00, 0x07,
  0x21, 0xf3, 0xad, 0x81, 0xf5, 0xe6, 0xf9, 0xba, 0xbc, 0xd5, 0xfd, 0xfb,
  0xee, 0x38, 0xd3, 0x27, 0xff, 0xf9, 0x32, 0x1f, 0xda, 0xf7, 0xf8, 0xdf,
  0x12, 0xdf, 0x08, 0xe2, 0xe9, 0xf9, 0x0a, 0xe6, 0xd3, 0x1a, 0xf9, 0xfb,
  0x14, 0xf9, 0x06, 0xe7, 0x05, 0xfc, 0x0b, 0x2f, 0xf4, 0xf3, 0xde, 0x02,
  0x38, 0x01, 0x26, 0x44, 0xe2, 0x18, 0x17, 0x13, 0xe1, 0x27, 0xd7, 0xd8,
  0x03, 0xee, 0x2d, 0xcf, 0x4a, 0x0f, 0xa8, 0xaf, 0xf1, 0xdf, 0x0d, 0xb9,
  0x2a, 0xfb, 0xed, 0x19, 0x08, 0x0b, 0xd9, 0xd4, 0x96, 0xa5, 0x56, 0x23,
  0x0c, 0x33, 0x25, 0xf1, 0xd0, 0x81, 0x36, 0x0b, 0x14, 0xfb, 0x36, 0xa7,
  0xe3, 0xbc, 0x32, 0xde, 0xe7, 0x04, 0xeb, 0x85, 0xdb, 0xf1, 0xec, 0x13,
  0xf8, 0xf5, 0x28, 0x08, 0xda, 0xb1, 0x14, 0x24, 0xf0, 0x17, 0xc4, 0x31,
  0x07, 0xfb, 0x16, 0x19, 0xf7, 0x0a, 0xcd, 0xe6, 0x2b, 0x4b, 0xed, 0x02,
  0x02, 0x03, 0x19, 0x0c, 0x39, 0x0d, 0x10, 0xe1, 0xc9, 0xaf, 0xde, 0xe7,
  0x14, 0x04, 0x13, 0xf2, 0x28, 0xc0, 0xe5, 0xe8, 0x24, 0x1f, 0xe2, 0x20,
  0x08, 0xf5, 0x0b, 0xf2, 0x33, 0xe4, 0xfd, 0xb8, 0x11, 0xd4, 0x16, 0xed,
  0xde, 0xf1, 0xee, 0xb6, 0x00, 0xd9, 0x00, 0xc6, 0x08, 0x21, 0x26, 0x3c,
  0x14, 0x21, 0x0a, 0xf6, 0x22, 0x36, 0x25, 0x03, 0xea, 0x11, 0x42, 0xe6,
  0xea, 0x15, 0xe7, 0x81, 0xef, 0xcc, 0x17, 0x9c, 0xd1, 0x2e, 0xcb, 0xf2,
  0xdc, 0x11, 0xe1, 0xfe, 0x08, 0x41, 0x0a, 0xd0, 0x13, 0xe3, 0x0f, 0x23,
  0x8c, 0x08, 0xe6, 0xff, 0xf2, 0xdc, 0xff, 0xea, 0x7f, 0x40, 0xde, 0xbc,
  0xc0, 0x3a, 0x17, 0xe1, 0x45, 0x3a, 0xf4, 0x04, 0xd9, 0x39, 0x38, 0xdd,
  0xe7, 0x35, 0x1d, 0xe2, 0x15, 0x03, 0x14, 0xec, 0x3e, 0xfb, 0xe8, 0xf0,
  0xae, 0xea, 0xd6, 0x12, 0x31, 0xf1, 0xef, 0x02, 0xb5, 0xd5, 0xcc, 0xf9,
  0xc6, 0x28, 0x05, 0x32, 0xe6, 0x02, 0x09, 0xd5, 0x08, 0x42, 0x22, 0x3d,
  0x00, 0xaf, 0x1a, 0x09, 0xf3, 0xba, 0xa7, 0x17, 0xf5, 0xcf, 0x40, 0x5e,
  0x03, 0xa1, 0xb6, 0xa7, 0x0c, 0xd3, 0xfc, 0xf2, 0xde, 0xb6, 0x43, 0x59,
  0xdd, 0x00, 0xdf, 0x60, 0x13, 0x11, 0x45, 0x3b, 0xf0, 0xc2, 0x0b, 0x1d,
  0xcd, 0xeb, 0x19, 0x81, 0x37, 0x0f, 0xd4, 0x91, 0xdd, 0x26, 0xf1, 0x0f,
  0xf5, 0xb5, 0x42, 0x3c, 0x13, 0xd1, 0xec, 0x48, 0xe4, 0x28, 0xb0, 0x64,
  0xff, 0x0b, 0x06, 0xed, 0x19, 0xd0, 0xa5, 0xa7, 0xf3, 0xbe, 0x15, 0x08,
  0xf8, 0xd9, 0xf9, 0x08, 0xe9, 0xe2, 0xaa, 0xfa, 0xb1, 0xd5, 0xd2, 0xe2,
  0xc9, 0xd6, 0xd3, 0x10, 0xfd, 0x0a, 0x08, 0x02, 0x08, 0xd2, 0x13, 0x24,
  0xcf, 0xfd, 0xd2, 0x18, 0xe6, 0x81, 0xe3, 0xfe, 0xa4, 0xe9, 0xde, 0xd4,
  0xee, 0x02, 0xcf, 0xa6, 0x3e, 0x44, 0xa9, 0xc2, 0x1c, 0xfd, 0xd8, 0x2e,
  0xd7, 0x03, 0xf6, 0xd2, 0x24, 0xd0, 0xf2, 0x04, 0xc1, 0x2c, 0xdb, 0xc4,
  0x01, 0x0f, 0xcd, 0xed, 0x32, 0xf6, 0x3f, 0xb8, 0xfe, 0xeb, 0xf7, 0x19,
  0x2b, 0x11, 0x10, 0x17, 0xef, 0xa7, 0xed, 0xd3, 0x4b, 0xdb, 0x12, 0xc5,
  0x04, 0x40, 0xc2, 0x65, 0x0c, 0xe1, 0x01, 0x4d, 0xf7, 0x28, 0x19, 0x30,
  0x34, 0xfe, 0x07, 0xe8, 0x23, 0x02, 0x1d, 0x9b, 0x2e, 0x0a, 0x09, 0xfb,
  0x05, 0xf5, 0x3d, 0x01, 0x1b, 0xd1, 0xe0, 0xd0, 0xcd, 0x24, 0xfc, 0x17,
  0xe6, 0xeb, 0xf7, 0x20, 0xe4, 0x20, 0x1e, 0xe6, 0xf3, 0xf0, 0x3f, 0x06,
  0x0a, 0x29, 0x07, 0x81, 0xd3, 0x01, 0x07, 0x8f, 0xbc, 0xc4, 0xf8, 0xdd,
  0xdb, 0x57, 0xa9, 0xbb, 0xd5, 0x81, 0x40, 0x35, 0x0b, 0x4a, 0xf2, 0xc1,
  0xe2, 0xa6, 0x28, 0x29, 0x19, 0x19, 0x15, 0x42, 0x5d, 0xec, 0xd1, 0x1f,
  0x4d, 0x35, 0xf3, 0xc5, 0xd7, 0xd8, 0x2a, 0xff, 0x8b, 0xc0, 0xfb, 0x46,
  0xd4, 0xdb, 0xba, 0xf3, 0xda, 0xf1, 0xfa, 0x67, 0xf9, 0x16, 0xe4, 0x56,
  0x18, 0xc5, 0x3c, 0xd0, 0xa5, 0x28, 0xc5, 0xdc, 0xc7, 0xfe, 0x00, 0x29,
  0xd5, 0xe7, 0xd9, 0xdc, 0x4b, 0xb1, 0x10, 0x15, 0xfa, 0xc5, 0xdb, 0xe1,
  0xe6, 0x50, 0xb5, 0xcc, 0xd5, 0xcc, 0xcb, 0xa3, 0xda, 0xff, 0x8a, 0xe2,
  0x2c, 0x15, 0xef, 0xcb, 0x0c, 0x21, 0xc4, 0xbb, 0x2e, 0x05, 0xf6, 0xeb,
  0xba, 0x0a, 0xb2, 0x97, 0x27, 0x76, 0xdb, 0x23, 0x81, 0x26, 0xa3, 0xa6,
  0x32, 0x59, 0x01, 0x59, 0xd4, 0x19, 0xc6, 0xae, 0x11, 0x06, 0x04, 0x03,
  0x38, 0xf9, 0xd9, 0x0b, 0xd2, 0x16, 0xcf, 0x40, 0x13, 0x1f, 0xf2, 0xf3,
  0xd4, 0x25, 0x1f, 0x62, 0x04, 0x0a, 0xef, 0xf2, 0x7f, 0x1d, 0x39, 0xdb,
  0xe9, 0xf2, 0x1f, 0x2a, 0x5a, 0x03, 0xf4, 0x08, 0xd5, 0xec, 0xd9, 0xe9,
  0xaa, 0xe4, 0xfa, 0x32, 0x07, 0xee, 0xf2, 0xe5, 0x35, 0x0d, 0xe1, 0xc7,
  0xd7, 0xc1, 0xea, 0xf0, 0xfe, 0x1b, 0xbf, 0x07, 0xb7, 0xcc, 0xe7, 0xe5,
  0xc5, 0x25, 0xca, 0x24, 0xdb, 0x47, 0xd6, 0xeb, 0xe0, 0x1c, 0x2c, 0xe4,
  0x03, 0x0d, 0x04, 0xce, 0xc1, 0x15, 0x1d, 0xd5, 0xba, 0x30, 0xeb, 0xea,
  0x13, 0xf5, 0x1e, 0xeb, 0xff, 0x38, 0xfb, 0xe1, 0xfa, 0xfe, 0x1f, 0xdc,
  0xe4, 0xce, 0xac, 0xd8, 0xe6, 0x3e, 0xdc, 0x11, 0xa1, 0xf8, 0xc7, 0xdf,
  0x31, 0x50, 0x01, 0x24, 0x02, 0x0f, 0x0f, 0xeb, 0x50, 0x33, 0xc6, 0xbe,
  0x9e, 0x91, 0xd7, 0x00, 0x28, 0x2f, 0xb7, 0xf0, 0xba, 0xe7, 0xba, 0xfb,
  0xd5, 0x20, 0x51, 0xdb, 0xf6, 0x22, 0xea, 0x01, 0x67, 0x3e, 0xa1, 0xf2,
  0x81, 0xa8, 0xc8, 0xf0, 0x2a, 0x24, 0xdd, 0x2a, 0x08, 0x20, 0xe8, 0x07,
  0xf7, 0x1d, 0x41, 0xd0, 0x0f, 0x0d, 0x25, 0x17, 0xa6, 0xf9, 0xff, 0xff,
  0x04, 0x00, 0x00, 0x00, 0x40, 0x00, 0x00, 0x00, 0xf0, 0x3b, 0xaa, 0xbd,
  0x8d, 0x2b, 0xd4, 0xb8, 0xd9, 0xa6, 0x2c, 0xbe, 0x93, 0x61, 0x84, 0x3d,
  0x1a, 0x29, 0xe9, 0x3c, 0xc3, 0xa5, 0x11, 0xbe, 0x85, 0x1a, 0xd5, 0x3d,
  0x95, 0xe4, 0x5e, 0x3d, 0xf2, 0xc4, 0x68, 0x3d, 0x18, 0xb6, 0x35, 0xbd,
  0x71, 0x22, 0x02, 0x3c, 0x0c, 0x64, 0x86, 0x3c, 0xfa, 0x98, 0xec, 0xbd,
  0x4f, 0x39, 0x6d, 0x3d, 0x55, 0x5f, 0x0f, 0x3e, 0x20, 0xab, 0x22, 0x3e,
  0xf2, 0xf9, 0xff, 0xff, 0x04, 0x00, 0x00, 0x00, 0x00, 0x01, 0x00, 0x00,
  0x81, 0x9f, 0x1d, 0xbe, 0x7c, 0x43, 0x40, 0x3d, 0xc4, 0x8d, 0xfd, 0xbd,
  0x17, 0xf8, 0x12, 0x3e, 0x45, 0xe0, 0xb2, 0x3c, 0x8d, 0xa2, 0x98, 0xbd,
  0xc3, 0x16, 0x84, 0xbe, 0xa6, 0xa9, 0x26, 0x3e, 0x69, 0xd2, 0x91, 0x3d,
  0xad, 0xdf, 0x63, 0xbe, 0x84, 0xb6, 0xa3, 0xbe, 0xfc, 0xd2, 0xcf, 0x3d,
  0xab, 0x50, 0x16, 0x3e, 0xa3, 0x2a, 0xd3, 0x3d, 0xf8, 0x09, 0x13, 0x3c,
  0x2b, 0xbc, 0xb1, 0x3d, 0xb1, 0x7d, 0x15, 0x3d, 0x5d, 0x2d, 0xaf, 0xbe,
  0x1f, 0x0c, 0x88, 0xbb, 0x7b, 0xf6, 0xf9, 0xbd, 0xbe, 0x06, 0x90, 0xbe,
  0x1b, 0xa0, 0xe9, 0x3e, 0x23, 0xe9, 0x6f, 0xbe, 0x15, 0x8c, 0x5c, 0x3e,
  0x01, 0x40, 0x25, 0x3c, 0x0c, 0x37, 0x8d, 0xbe, 0xcd, 0xff, 0x0a, 0x3e,
  0x99, 0x47, 0x88, 0x3e, 0xe6, 0x60, 0x09, 0xbd, 0x25, 0x98, 0x64, 0x3d,
  0x2c, 0xc4, 0x38, 0x3e, 0xbe, 0x3c, 0x8d, 0xbd, 0x42, 0xeb, 0xca, 0x3e,
  0x4f, 0x58, 0x4d, 0xbe, 0x61, 0xd3, 0x53, 0x3e, 0xc8, 0x86, 0x54, 0xbe,
  0x51, 0xf7, 0xb7, 0x3c, 0xc2, 0x26, 0xb4, 0xbd, 0x3c, 0x81, 0x84, 0x3d,
  0x23, 0x87, 0x2f, 0xbc, 0x89, 0x83, 0x7b, 0xbe, 0x76, 0xeb, 0x87, 0x3d,
  0x3d, 0x18, 0x32, 0x3e, 0xec, 0x2e, 0x31, 0xbe, 0x3b, 0x2c, 0x66, 0xbe,
  0x7c, 0x4b, 0xa0, 0xbe, 0x4b, 0x1b, 0xb8, 0x3d, 0x2a, 0x8d, 0x66, 0xbe,
  0x2b, 0xf5, 0xb9, 0x3d, 0x15, 0xbe, 0x67, 0x3e, 0xf6, 0xd5, 0x25, 0x3e,
  0x76, 0x97, 0x80, 0x3d, 0xd7, 0xe4, 0x81, 0x3c, 0xda, 0xd8, 0x45, 0xbe,
  0x27, 0x63, 0x3e, 0x3e, 0xa5, 0x88, 0x20, 0xbe, 0x6d, 0x02, 0x8c, 0xbd,
  0xb7, 0x01, 0x39, 0x3e, 0xfe, 0x51, 0xa7, 0x3d, 0x71, 0x75, 0x1a, 0xbe,
  0x37, 0x83, 0xdf, 0xbc, 0x1e, 0xeb, 0x50, 0xbe, 0x2a, 0x89, 0xe0, 0xbd,
  0x3a, 0x50, 0x68, 0x3d, 0xfe, 0xfa, 0xff, 0xff, 0x04, 0x00, 0x00, 0x00,
  0x08, 0x00, 0x00, 0x00, 0xd2, 0xb4, 0xce, 0xbd, 0x52, 0x92, 0xa3, 0x3d,
  0x12, 0xfb, 0xff, 0xff, 0x04, 0x00, 0x00, 0x00, 0x80, 0x00, 0x00, 0x00,
  0xf2, 0x0d, 0x6c, 0x3d, 0x77, 0x87, 0xdb, 0x3d, 0x04, 0xd7, 0x8b, 0xbd,
  0x7c, 0x3f, 0xf5, 0x3c, 0xf0, 0x11, 0xf9, 0xbc, 0x9f, 0xc1, 0x33, 0x3b,
  0x16, 0x7d, 0x05, 0xbd, 0x9e, 0xef, 0xf7, 0x3d, 0x22, 0x6a, 0x85, 0x3c,
  0x57, 0xbe, 0xf2, 0xbc, 0x93, 0x7e, 0x81, 0x3d, 0xba, 0xbd, 0x41, 0x3d,
  0xde, 0xe2, 0x85, 0x3d, 0xcc, 0x40, 0xd6, 0x3d, 0xc7, 0x5a, 0x7b, 0xbd,
  0x03, 0x24, 0xaf, 0x3d, 0x27, 0x67, 0xa8, 0xbd, 0xab, 0x1d, 0x63, 0x3d,
  0xd9, 0x78, 0x30, 0xbd, 0x39, 0xf8, 0xfb, 0xbb, 0x1a, 0xf0, 0x55, 0xbc,
  0xd2, 0x63, 0x4d, 0x3e, 0x44, 0xbf, 0x6b, 0xbc, 0xc8, 0x17, 0x10, 0x3e,
  0x89, 0x11, 0xeb, 0xbc, 0x1a, 0x5b, 0xfb, 0xbc, 0x7e, 0x2f, 0xad, 0xbc,
  0x80, 0xd7, 0xe3, 0x3c, 0x2a, 0x8f, 0x86, 0xbc, 0x07, 0x7d, 0xd2, 0x3d,
  0x18, 0x2f, 0xde, 0x3c, 0xff, 0xc8, 0x3a, 0xbd, 0x9e, 0xfb, 0xff, 0xff,
  0x04, 0x00, 0x00, 0x00, 0x08, 0x00, 0x00, 0x00, 0xff, 0xff, 0xff, 0xff,
  0x00, 0x01, 0x00, 0x00, 0xb2, 0xfb, 0xff, 0xff, 0x04, 0x00, 0x00, 0x00,
  0x10, 0x00, 0x00, 0x00, 0x00, 0x00, 0x00, 0x00, 0x03, 0x00, 0x00, 0x00,
  0x01, 0x00, 0x00, 0x00, 0x02, 0x00, 0x00, 0x00, 0xce, 0xfb, 0xff, 0xff,
  0x04, 0x00, 0x00, 0x00, 0x60, 0x03, 0x00, 0x00, 0x32, 0xdc, 0x1e, 0xbd,
  0x82, 0x85, 0xe0, 0x3d, 0xe9, 0x31, 0x93, 0x3c, 0x9b, 0x60, 0xaa, 0x3d,
  0xf7, 0xe9, 0xb0, 0x3d, 0xae, 0x40, 0x9c, 0x3d, 0x92, 0xc2, 0xaa, 0xbc,
  0x8a, 0x7a, 0xc5, 0x3a, 0xa0, 0xe0, 0x39, 0xbe, 0x2c, 0x5e, 0xc8, 0x3d,
  0x43, 0x08, 0x19, 0x3d, 0x63, 0x1d, 0x60, 0xbe, 0x85, 0xe3, 0xcf, 0x3e,
  0xe6, 0xb9, 0x3e, 0xbe, 0x9c, 0x9e, 0xd5, 0xbd, 0xe8, 0x83, 0x99, 0x3e,
  0x20, 0xdd, 0x72, 0xbe, 0x8f, 0xe5, 0xd4, 0x3c, 0x85, 0xfc, 0xcc, 0x3d,
  0x8e, 0xb9, 0xf7, 0xbd, 0x82, 0xc5, 0xb7, 0x3d, 0x94, 0x8b, 0x37, 0x3e,
  0x00, 0xc1, 0x88, 0xbe, 0x90, 0x04, 0x84, 0xbc, 0x06, 0x66, 0x85, 0x3e,
  0x7f, 0xc1, 0x89, 0xbe, 0x7a, 0xb5, 0x06, 0xbe, 0x70, 0xa5, 0x1a, 0xbe,
  0xff, 0x11, 0xf3, 0x3d, 0x68, 0x97, 0x4a, 0xbd, 0xe1, 0xb0, 0x4c, 0xbd,
  0x40, 0xf7, 0xd0, 0xbc, 0xd3, 0x8c, 0x0e, 0x3d, 0xb2, 0x3a, 0x79, 0xbe,
  0xd5, 0xfc, 0x6d, 0x3e, 0xf5, 0x99, 0xae, 0x3c, 0xbe, 0x03, 0x09, 0x3e,
  0x44, 0xed, 0x2c, 0x3e, 0x13, 0xdb, 0x36, 0xbe, 0xff, 0x9f, 0x84, 0xbd,
  0xa1, 0x7c, 0xa4, 0x3d, 0x85, 0x0c, 0xe6, 0xbc, 0x9f, 0x2d, 0x0b, 0xbe,
  0x94, 0x53, 0x24, 0xbc, 0xe7, 0xec, 0x1d, 0xbe, 0x87, 0xd7, 0x2c, 0xbd,
  0x4f, 0xc2, 0x6c, 0x3e, 0xfa, 0x07, 0x93, 0xbe, 0x12, 0xa0, 0x78, 0x3e,
  0x74, 0x45, 0x32, 0x3e, 0xd3, 0x54, 0x77, 0xbd, 0xa9, 0xaf, 0x81, 0x3e,
  0xb8, 0x83, 0xe2, 0x3d, 0x6b, 0xe7, 0x57, 0xbe, 0x70, 0x2c, 0x81, 0x3d,
  0x68, 0xad, 0x05, 0x3e, 0x99, 0xf2, 0xce, 0x3e, 0x49, 0xbf, 0x18, 0x3d,
  0x56, 0xce, 0x30, 0x3e, 0xf9, 0x6d, 0x1e, 0x3e, 0xad, 0xc2, 0xbc, 0xbe,
  0x15, 0xd9, 0x05, 0x3e, 0x42, 0xe9, 0x26, 0x3e, 0x24, 0xbd, 0xa5, 0xbd,
  0xe7, 0xb4, 0xc0, 0x3c, 0xa8, 0x60, 0x86, 0x3d, 0x57, 0x9d, 0x51, 0xbe,
  0x71, 0xa2, 0x8e, 0x3d, 0xf9, 0x15, 0xc7, 0x3d, 0x82, 0x5c, 0x4b, 0xbd,
  0x9f, 0x29, 0x04, 0xbe, 0x66, 0x98, 0x2a, 0x3e, 0x74, 0xb6, 0xa8, 0x3d,
  0xad, 0x62, 0x9c, 0xbc, 0xce, 0x8d, 0x83, 0xbe, 0x3d, 0xd3, 0x95, 0xbd,
  0xf0, 0x0a, 0x36, 0x3d, 0x8f, 0xf0, 0xcf, 0xbd, 0x68, 0x1a, 0x3f, 0x3d,
  0x7d, 0x64, 0x71, 0xbb, 0xe0, 0x70, 0xc3, 0x3c, 0xe3, 0x2c, 0x23, 0x3e,
  0xa2, 0x3a, 0x39, 0x3d, 0xe3, 0x4e, 0x6a, 0xba, 0x68, 0x29, 0x7b, 0xbc,
  0x69, 0x78, 0x28, 0x3e, 0xff, 0xa8, 0x03, 0xbe, 0xd8, 0x01, 0xec, 0x3d,
  0x8a, 0x83, 0xf3, 0xbd, 0xeb, 0x40, 0x29, 0x3e, 0x17, 0xf2, 0x9b, 0x3c,
  0x5e, 0x36, 0x64, 0xbe, 0x24, 0x73, 0x01, 0xbe, 0xc9, 0x6e, 0xc1, 0xbd,
  0xc0, 0xfd, 0x19, 0xbe, 0x14, 0xe7, 0xb6, 0xbd, 0xda, 0x97, 0x1e, 0x3d,
  0xa0, 0x7f, 0x89, 0x3e, 0x52, 0x24, 0x53, 0x3e, 0xcf, 0xf5, 0x2a, 0xbe,
  0x27, 0x5e, 0xfe, 0x3d, 0xb4, 0x22, 0x85, 0xbe, 0x34, 0x02, 0x9e, 0xbd,
  0xc3, 0xb7, 0xd7, 0xbc, 0xb2, 0xcd, 0x29, 0xbe, 0x12, 0x3c, 0xd7, 0x3d,
  0xd3, 0xd1, 0x71, 0x3d, 0x73, 0x38, 0xa2, 0x3e, 0xbf, 0xde, 0x18, 0x3e,
  0x1b, 0x43, 0x27, 0xbe, 0xdb, 0xed, 0xe5, 0x3d, 0xce, 0xb0, 0x7b, 0xbd,
  0x32, 0x0a, 0x39, 0x3e, 0xd7, 0xae, 0x77, 0x3e, 0x35, 0xc3, 0xfd, 0xbd,
  0xb0, 0xc5, 0x1d, 0xbe, 0x06, 0xb7, 0x9f, 0xbe, 0x21, 0x69, 0x58, 0x3d,
  0x7a, 0x48, 0xd5, 0x3d, 0x2f, 0x4d, 0x99, 0x3e, 0x50, 0xfd, 0x4b, 0xbe,
  0xff, 0xff, 0x10, 0x3e, 0x3c, 0xe9, 0x95, 0x3e, 0x63, 0xfc, 0x82, 0xbe,
  0x8d, 0x94, 0x95, 0xbd, 0xa7, 0x67, 0x04, 0xbe, 0x66, 0x68, 0x1f, 0xbe,
  0xa9, 0xa2, 0xf0, 0x3c, 0xb7, 0x9a, 0x4e, 0xbb, 0x75, 0x85, 0x6f, 0xbc,
  0xce, 0xe1, 0x8a, 0xbd, 0x87, 0xb6, 0x62, 0x3c, 0x28, 0xb6, 0xa8, 0xbd,
  0xc5, 0x41, 0x87, 0xbd, 0x50, 0x51, 0x4c, 0x3d, 0xa5, 0x21, 0x96, 0xbe,
  0xee, 0xb0, 0xcc, 0x3c, 0x9c, 0xde, 0x2c, 0x3e, 0xd7, 0xea, 0x2d, 0x3d,
  0x2d, 0xc4, 0x2b, 0x3e, 0x20, 0x54, 0x95, 0x3d, 0x42, 0xfc, 0x97, 0xbc,
  0xe2, 0xc8, 0xe3, 0x3d, 0xda, 0xb0, 0x48, 0x3e, 0x1f, 0xa5, 0xa3, 0xbd,
  0x92, 0x92, 0xde, 0x3d, 0xea, 0x90, 0x09, 0x3e, 0xd0, 0xcb, 0xbc, 0x3d,
  0x7d, 0xe5, 0x02, 0x3e, 0xe5, 0xcf, 0xd4, 0xbc, 0x5f, 0x44, 0xc6, 0x3d,
  0xc6, 0x95, 0x44, 0xbd, 0x73, 0x12, 0x25, 0xbd, 0x43, 0x96, 0xdc, 0x3d,
  0xfb, 0xd3, 0x93, 0x3c, 0x55, 0x25, 0x11, 0x3e, 0x0c, 0xe7, 0xa6, 0x3d,
  0x9f, 0xf6, 0xaf, 0x3d, 0x2d, 0xf4, 0x03, 0xbe, 0x8e, 0xf4, 0x72, 0x3d,
  0xdd, 0x48, 0x01, 0x3c, 0x70, 0x6d, 0xb3, 0xbe, 0xe7, 0xbd, 0xc3, 0xbb,
  0xe9, 0xe7, 0x6b, 0x3e, 0x87, 0xe6, 0x26, 0x3e, 0xa2, 0x8f, 0x3d, 0xbd,
  0x96, 0x39, 0x68, 0xbe, 0x3b, 0x97, 0x29, 0x3c, 0x74, 0x6f, 0x8c, 0xbe,
  0x41, 0xd4, 0x5e, 0xbe, 0xe5, 0xb8, 0x8e, 0xbe, 0x40, 0x67, 0x16, 0x3e,
  0xae, 0x76, 0x21, 0x3e, 0x86, 0x6b, 0x04, 0x3e, 0xbc, 0x71, 0x42, 0x3e,
  0x4f, 0x4a, 0x0d, 0xbe, 0xc0, 0x7a, 0xce, 0xbc, 0xb9, 0x72, 0xa7, 0x3d,
  0x28, 0x72, 0x73, 0x3d, 0x3c, 0xc1, 0x1d, 0xbe, 0x6c, 0x1a, 0x0b, 0xbe,
  0xa6, 0xdb, 0xf9, 0x3d, 0x6e, 0x23, 0x7f, 0xbd, 0x03, 0x7e, 0x4f, 0x3b,
  0x79, 0x2a, 0x54, 0x3e, 0x15, 0x08, 0x4e, 0x3e, 0x97, 0x8d, 0xbc, 0x3d,
  0x81, 0x6f, 0x35, 0xbd, 0xd7, 0x4d, 0x8e, 0x3d, 0x3c, 0x10, 0x62, 0xbd,
  0x95, 0xa9, 0x36, 0xbe, 0x97, 0xe5, 0x93, 0xbe, 0x23, 0xdd, 0x53, 0xbd,
  0xbd, 0x2f, 0xad, 0x3d, 0x9e, 0x4a, 0xe9, 0xbd, 0x73, 0xb1, 0x67, 0x3e,
  0xc6, 0x7d, 0x3d, 0x3d, 0xed, 0x45, 0xf5, 0x3d, 0x24, 0x7e, 0x96, 0x3d,
  0x5d, 0x29, 0x66, 0x3d, 0x37, 0x20, 0x9f, 0xbe, 0x42, 0x2d, 0xc0, 0x3d,
  0xa7, 0x0c, 0x7e, 0xbd, 0x00, 0xd2, 0x39, 0xbe, 0xa2, 0xda, 0x5c, 0xbd,
  0x04, 0x73, 0xc7, 0xbd, 0xd5, 0x6b, 0x03, 0x3e, 0x25, 0x57, 0x16, 0x3e,
  0x67, 0x21, 0x0b, 0x3d, 0xb6, 0x69, 0x10, 0x3d, 0xfe, 0xb7, 0x3d, 0x3e,
  0x68, 0x0a, 0x1f, 0xbe, 0x1c, 0x14, 0x43, 0xbc, 0xd7, 0x24, 0x08, 0xbc,
  0x2e, 0xae, 0x9e, 0xbc, 0x1a, 0x6f, 0x69, 0x3d, 0x3a, 0xff, 0xff, 0xff,
  0x04, 0x00, 0x00, 0x00, 0x20, 0x00, 0x00, 0x00, 0xee, 0xd9, 0xe2, 0x3c,
  0xc7, 0x9c, 0xb6, 0x3c, 0x07, 0x71, 0x75, 0xbe, 0x05, 0x40, 0x2a, 0x3e,
  0xa2, 0x10, 0x4f, 0x3c, 0xb1, 0xae, 0x63, 0x3e, 0x78, 0x14, 0x45, 0xbd,
  0xdd, 0x36, 0xd7, 0xbe, 0xe4, 0xf3, 0xff, 0xff, 0xe8, 0xf3, 0xff, 0xff,
  0x0f, 0x00, 0x00, 0x00, 0x4d, 0x4c, 0x49, 0x52, 0x20, 0x43, 0x6f, 0x6e,
  0x76, 0x65, 0x72, 0x74, 0x65, 0x64, 0x2e, 0x00, 0x01, 0x00, 0x00, 0x00,
  0x14, 0x00, 0x00, 0x00, 0x00, 0x00, 0x0e, 0x00, 0x18, 0x00, 0x14, 0x00,
  0x10, 0x00, 0x0c, 0x00, 0x08, 0x00, 0x04, 0x00, 0x0e, 0x00, 0x00, 0x00,
  0x14, 0x00, 0x00, 0x00, 0x1c, 0x00, 0x00, 0x00, 0x78, 0x02, 0x00, 0x00,
  0x7c, 0x02, 0x00, 0x00, 0x80, 0x02, 0x00, 0x00, 0x04, 0x00, 0x00, 0x00,
  0x6d, 0x61, 0x69, 0x6e, 0x00, 0x00, 0x00, 0x00, 0x09, 0x00, 0x00, 0x00,
  0x14, 0x02, 0x00, 0x00, 0xb0, 0x01, 0x00, 0x00, 0x60, 0x01, 0x00, 0x00,
  0x1c, 0x01, 0x00, 0x00, 0xf4, 0x00, 0x00, 0x00, 0xc0, 0x00, 0x00, 0x00,
  0x78, 0x00, 0x00, 0x00, 0x40, 0x00, 0x00, 0x00, 0x04, 0x00, 0x00, 0x00,
  0x7e, 0xfe, 0xff, 0xff, 0x1c, 0x00, 0x00, 0x00, 0x00, 0x00, 0x00, 0x09,
  0x1c, 0x00, 0x00, 0x00, 0x20, 0x00, 0x00, 0x00, 0x05, 0x00, 0x00, 0x00,
  0x00, 0x00, 0x06, 0x00, 0x08, 0x00, 0x04, 0x00, 0x06, 0x00, 0x00, 0x00,
  0x00, 0x00, 0x80, 0x3f, 0x01, 0x00, 0x00, 0x00, 0x13, 0x00, 0x00, 0x00,
  0x01, 0x00, 0x00, 0x00, 0x12, 0x00, 0x00, 0x00, 0xb6, 0xfe, 0xff, 0xff,
  0x14, 0x00, 0x00, 0x00, 0x00, 0x00, 0x00, 0x08, 0x10, 0x00, 0x00, 0x00,
  0x14, 0x00, 0x00, 0x00, 0x04, 0x00, 0x00, 0x00, 0xb4, 0xf4, 0xff, 0xff,
  0x01, 0x00, 0x00, 0x00, 0x12, 0x00, 0x00, 0x00, 0x03, 0x00, 0x00, 0x00,
  0x11, 0x00, 0x00, 0x00, 0x07, 0x00, 0x00, 0x00, 0x06, 0x00, 0x00, 0x00,
  0xea, 0xfe, 0xff, 0xff, 0x20, 0x00, 0x00, 0x00, 0x00, 0x00, 0x00, 0x08,
  0x20, 0x00, 0x00, 0x00, 0x24, 0x00, 0x00, 0x00, 0x04, 0x00, 0x00, 0x00,
  0x0c, 0x00, 0x08, 0x00, 0x07, 0x00, 0x00, 0x00, 0x00, 0x00, 0x06, 0x00,
  0x0c, 0x00, 0x00, 0x00, 0x00, 0x00, 0x01, 0x01, 0x01, 0x00, 0x00, 0x00,
  0x11, 0x00, 0x00, 0x00, 0x03, 0x00, 0x00, 0x00, 0x10, 0x00, 0x00, 0x00,
  0x0a, 0x00, 0x00, 0x00, 0x05, 0x00, 0x00, 0x00, 0xda, 0xff, 0xff, 0xff,
  0x0c, 0x00, 0x00, 0x00, 0x10, 0x00, 0x00, 0x00, 0x03, 0x00, 0x00, 0x00,
  0x01, 0x00, 0x00, 0x00, 0x10, 0x00, 0x00, 0x00, 0x02, 0x00, 0x00, 0x00,
  0x0f, 0x00, 0x00, 0x00, 0x04, 0x00, 0x00, 0x00, 0x00, 0x00, 0x0a, 0x00,
  0x10, 0x00, 0x0c, 0x00, 0x08, 0x00, 0x04, 0x00, 0x0a, 0x00, 0x00, 0x00,
  0x0c, 0x00, 0x00, 0x00, 0x10, 0x00, 0x00, 0x00, 0x02, 0x00, 0x00, 0x00,
  0x01, 0x00, 0x00, 0x00, 0x0f, 0x00, 0x00, 0x00, 0x02, 0x00, 0x00, 0x00,
  0x0e, 0x00, 0x00, 0x00, 0x03, 0x00, 0x00, 0x00, 0x82, 0xff, 0xff, 0xff,
  0x14, 0x00, 0x00, 0x00, 0x00, 0x00, 0x00, 0x05, 0x24, 0x00, 0x00, 0x00,
  0x28, 0x00, 0x00, 0x00, 0x01, 0x00, 0x00, 0x00, 0x72, 0xff, 0xff, 0xff,
  0x02, 0x00, 0x00, 0x00, 0x02, 0x00, 0x00, 0x00, 0x02, 0x00, 0x00, 0x00,
  0x02, 0x00, 0x00, 0x00, 0x00, 0x00, 0x00, 0x01, 0x01, 0x00, 0x00, 0x00,
  0x0e, 0x00, 0x00, 0x00, 0x01, 0x00, 0x00, 0x00, 0x0d, 0x00, 0x00, 0x00,
  0x62, 0xff, 0xff, 0xff, 0x10, 0x00, 0x00, 0x00, 0x00, 0x00, 0x00, 0x01,
  0x18, 0x00, 0x00, 0x00, 0x1c, 0x00, 0x00, 0x00, 0x54, 0xff, 0xff, 0xff,
  0x00, 0x00, 0x00, 0x01, 0x01, 0x00, 0x00, 0x00, 0x01, 0x00, 0x00, 0x00,
  0x01, 0x00, 0x00, 0x00, 0x0d, 0x00, 0x00, 0x00, 0x03, 0x00, 0x00, 0x00,
  0x0c, 0x00, 0x00, 0x00, 0x09, 0x00, 0x00, 0x00, 0x08, 0x00, 0x00, 0x00,
  0x00, 0x00, 0x0e, 0x00, 0x1a, 0x00, 0x14, 0x00, 0x10, 0x00, 0x0c, 0x00,
  0x0b, 0x00, 0x04, 0x00, 0x0e, 0x00, 0x00, 0x00, 0x24, 0x00, 0x00, 0x00,
  0x00, 0x00, 0x00, 0x05, 0x34, 0x00, 0x00, 0x00, 0x38, 0x00, 0x00, 0x00,
  0x01, 0x00, 0x00, 0x00, 0x00, 0x00, 0x0e, 0x00, 0x18, 0x00, 0x17, 0x00,
  0x10, 0x00, 0x0c, 0x00, 0x08, 0x00, 0x04, 0x00, 0x0e, 0x00, 0x00, 0x00,
  0x02, 0x00, 0x00, 0x00, 0x02, 0x00, 0x00, 0x00, 0x02, 0x00, 0x00, 0x00,
  0x02, 0x00, 0x00, 0x00, 0x00, 0x00, 0x00, 0x01, 0x01, 0x00, 0x00, 0x00,
  0x0c, 0x00, 0x00, 0x00, 0x01, 0x00, 0x00, 0x00, 0x0b, 0x00, 0x00, 0x00,
  0x00, 0x00, 0x0e, 0x00, 0x14, 0x00, 0x00, 0x00, 0x10, 0x00, 0x0c, 0x00,
  0x0b, 0x00, 0x04, 0x00, 0x0e, 0x00, 0x00, 0x00, 0x1c, 0x00, 0x00, 0x00,
  0x00, 0x00, 0x00, 0x01, 0x24, 0x00, 0x00, 0x00, 0x28, 0x00, 0x00, 0x00,
  0x0c, 0x00, 0x10, 0x00, 0x00, 0x00, 0x0c, 0x00, 0x08, 0x00, 0x07, 0x00,
  0x0c, 0x00, 0x00, 0x00, 0x00, 0x00, 0x00, 0x01, 0x01, 0x00, 0x00, 0x00,
  0x01, 0x00, 0x00, 0x00, 0x01, 0x00, 0x00, 0x00, 0x0b, 0x00, 0x00, 0x00,
  0x03, 0x00, 0x00, 0x00, 0x00, 0x00, 0x00, 0x00, 0x02, 0x00, 0x00, 0x00,
  0x01, 0x00, 0x00, 0x00, 0x01, 0x00, 0x00, 0x00, 0x13, 0x00, 0x00, 0x00,
  0x01, 0x00, 0x00, 0x00, 0x00, 0x00, 0x00, 0x00, 0x14, 0x00, 0x00, 0x00,
  0x38, 0x09, 0x00, 0x00, 0xe4, 0x08, 0x00, 0x00, 0x9c, 0x08, 0x00, 0x00,
  0x5c, 0x08, 0x00, 0x00, 0x04, 0x08, 0x00, 0x00, 0xc8, 0x07, 0x00, 0x00,
  0x8c, 0x07, 0x00, 0x00, 0x4c, 0x07, 0x00, 0x00, 0x10, 0x07, 0x00, 0x00,
  0xe0, 0x05, 0x00, 0x00, 0x08, 0x04, 0x00, 0x00, 0x70, 0x03, 0x00, 0x00,
  0x14, 0x03, 0x00, 0x00, 0x78, 0x02, 0x00, 0x00, 0x18, 0x02, 0x00, 0x00,
  0xb4, 0x01, 0x00, 0x00, 0x50, 0x01, 0x00, 0x00, 0xc0, 0x00, 0x00, 0x00,
  0x48, 0x00, 0x00, 0x00, 0x04, 0x00, 0x00, 0x00, 0x2e, 0xf7, 0xff, 0xff,
  0x00, 0x00, 0x00, 0x01, 0x10, 0x00, 0x00, 0x00, 0x10, 0x00, 0x00, 0x00,
  0x14, 0x00, 0x00, 0x00, 0x20, 0x00, 0x00, 0x00, 0x18, 0xf7, 0xff, 0xff,
  0x11, 0x00, 0x00, 0x00, 0x50, 0x61, 0x72, 0x74, 0x69, 0x74, 0x69, 0x6f,
  0x6e, 0x65, 0x64, 0x43, 0x61, 0x6c, 0x6c, 0x3a, 0x30, 0x00, 0x00, 0x00,
  0x02, 0x00, 0x00, 0x00, 0x01, 0x00, 0x00, 0x00, 0x02, 0x00, 0x00, 0x00,
  0x6e, 0xf7, 0xff, 0xff, 0x00, 0x00, 0x00, 0x01, 0x10, 0x00, 0x00, 0x00,
  0x10, 0x00, 0x00, 0x00, 0x13, 0x00, 0x00, 0x00, 0x54, 0x00, 0x00, 0x00,
  0x58, 0xf7, 0xff, 0xff, 0x46, 0x00, 0x00, 0x00, 0x6d, 0x6f, 0x64, 0x65,
  0x6c, 0x5f, 0x32, 0x2f, 0x74, 0x66, 0x2e, 0x6c, 0x69, 0x6e, 0x61, 0x6c,
  0x67, 0x2e, 0x6d, 0x61, 0x74, 0x6d, 0x75, 0x6c, 0x5f, 0x31, 0x2f, 0x4d,
  0x61, 0x74, 0x4d, 0x75, 0x6c, 0x3b, 0x6d, 0x6f, 0x64, 0x65, 0x6c, 0x5f,
  0x32, 0x2f, 0x74, 0x66, 0x2e, 0x5f, 0x5f, 0x6f, 0x70, 0x65, 0x72, 0x61,
  0x74, 0x6f, 0x72, 0x73, 0x5f, 0x5f, 0x2e, 0x61, 0x64, 0x64, 0x5f, 0x31,
  0x2f, 0x41, 0x64, 0x64, 0x56, 0x32, 0x00, 0x00, 0x02, 0x00, 0x00, 0x00,
  0x01, 0x00, 0x00, 0x00, 0x02, 0x00, 0x00, 0x00, 0xe2, 0xf7, 0xff, 0xff,
  0x00, 0x00, 0x00, 0x01, 0x10, 0x00, 0x00, 0x00, 0x10, 0x00, 0x00, 0x00,
  0x12, 0x00, 0x00, 0x00, 0x6c, 0x00, 0x00, 0x00, 0xcc, 0xf7, 0xff, 0xff,
  0x5c, 0x00, 0x00, 0x00, 0x6d, 0x6f, 0x64, 0x65, 0x6c, 0x5f, 0x32, 0x2f,
  0x74, 0x66, 0x2e, 0x6c, 0x69, 0x6e, 0x61, 0x6c, 0x67, 0x2e, 0x6d, 0x61,
  0x74, 0x6d, 0x75, 0x6c, 0x2f, 0x4d, 0x61, 0x74, 0x4d, 0x75, 0x6c, 0x3b,
  0x6d, 0x6f, 0x64, 0x65, 0x6c, 0x5f, 0x32, 0x2f, 0x74, 0x66, 0x2e, 0x6e,
  0x6e, 0x2e, 0x72, 0x65, 0x6c, 0x75, 0x5f, 0x32, 0x2f, 0x52, 0x65, 0x6c,
  0x75, 0x3b, 0x6d, 0x6f, 0x64, 0x65, 0x6c, 0x5f, 0x32, 0x2f, 0x74, 0x66,
  0x2e, 0x5f, 0x5f, 0x6f, 0x70, 0x65, 0x72, 0x61, 0x74, 0x6f, 0x72, 0x73,
  0x5f, 0x5f, 0x2e, 0x61, 0x64, 0x64, 0x2f, 0x41, 0x64, 0x64, 0x56, 0x32,
  0x00, 0x00, 0x00, 0x00, 0x02, 0x00, 0x00, 0x00, 0x01, 0x00, 0x00, 0x00,
  0x20, 0x00, 0x00, 0x00, 0x6e, 0xf8, 0xff, 0xff, 0x00, 0x00, 0x00, 0x01,
  0x10, 0x00, 0x00, 0x00, 0x10, 0x00, 0x00, 0x00, 0x11, 0x00, 0x00, 0x00,
  0x40, 0x00, 0x00, 0x00, 0x58, 0xf8, 0xff, 0xff, 0x32, 0x00, 0x00, 0x00,
  0x6d, 0x6f, 0x64, 0x65, 0x6c, 0x5f, 0x32, 0x2f, 0x66, 0x6c, 0x61, 0x74,
  0x74, 0x65, 0x6e, 0x2f, 0x52, 0x65, 0x73, 0x68, 0x61, 0x70, 0x65, 0x3b,
  0x6d, 0x6f, 0x64, 0x65, 0x6c, 0x5f, 0x32, 0x2f, 0x74, 0x66, 0x2e, 0x72,
  0x65, 0x73, 0x68, 0x61, 0x70, 0x65, 0x2f, 0x52, 0x65, 0x73, 0x68, 0x61,
  0x70, 0x65, 0x00, 0x00, 0x02, 0x00, 0x00, 0x00, 0x01, 0x00, 0x00, 0x00,
  0x00, 0x01, 0x00, 0x00, 0xce, 0xf8, 0xff, 0xff, 0x00, 0x00, 0x00, 0x01,
  0x10, 0x00, 0x00, 0x00, 0x10, 0x00, 0x00, 0x00, 0x10, 0x00, 0x00, 0x00,
  0x38, 0x00, 0x00, 0x00, 0xb8, 0xf8, 0xff, 0xff, 0x2a, 0x00, 0x00, 0x00,
  0x6d, 0x6f, 0x64, 0x65, 0x6c, 0x5f, 0x32, 0x2f, 0x74, 0x66, 0x2e, 0x63,
  0x6f, 0x6d, 0x70, 0x61, 0x74, 0x2e, 0x76, 0x31, 0x2e, 0x74, 0x72, 0x61,
  0x6e, 0x73, 0x70, 0x6f, 0x73, 0x65, 0x5f, 0x33, 0x2f, 0x74, 0x72, 0x61,
  0x6e, 0x73, 0x70, 0x6f, 0x73, 0x65, 0x00, 0x00, 0x04, 0x00, 0x00, 0x00,
  0x01, 0x00, 0x00, 0x00, 0x10, 0x00, 0x00, 0x00, 0x04, 0x00, 0x00, 0x00,
  0x04, 0x00, 0x00, 0x00, 0x2e, 0xf9, 0xff, 0xff, 0x00, 0x00, 0x00, 0x01,
  0x10, 0x00, 0x00, 0x00, 0x10, 0x00, 0x00, 0x00, 0x0f, 0x00, 0x00, 0x00,
  0x34, 0x00, 0x00, 0x00, 0x18, 0xf9, 0xff, 0xff, 0x24, 0x00, 0x00, 0x00,
  0x6d, 0x6f, 0x64, 0x65, 0x6c, 0x5f, 0x32, 0x2f, 0x74, 0x66, 0x2e, 0x6e,
  0x6e, 0x2e, 0x6d, 0x61, 0x78, 0x5f, 0x70, 0x6f, 0x6f, 0x6c, 0x32, 0x64,
  0x5f, 0x31, 0x2f, 0x4d, 0x61, 0x78, 0x50, 0x6f, 0x6f, 0x6c, 0x32, 0x64,
  0x00, 0x00, 0x00, 0x00, 0x04, 0x00, 0x00, 0x00, 0x01, 0x00, 0x00, 0x00,
  0x04, 0x00, 0x00, 0x00, 0x04, 0x00, 0x00, 0x00, 0x10, 0x00, 0x00, 0x00,
  0x8a, 0xf9, 0xff, 0xff, 0x00, 0x00, 0x00, 0x01, 0x10, 0x00, 0x00, 0x00,
  0x10, 0x00, 0x00, 0x00, 0x0e, 0x00, 0x00, 0x00, 0x70, 0x00, 0x00, 0x00,
  0x74, 0xf9, 0xff, 0xff, 0x63, 0x00, 0x00, 0x00, 0x6d, 0x6f, 0x64, 0x65,
  0x6c, 0x5f, 0x32, 0x2f, 0x74, 0x66, 0x2e, 0x6e, 0x6e, 0x2e, 0x72, 0x65,
  0x6c, 0x75, 0x5f, 0x31, 0x2f, 0x52, 0x65, 0x6c, 0x75, 0x3b, 0x6d, 0x6f,
  0x64, 0x65, 0x6c, 0x5f, 0x32, 0x2f, 0x74, 0x66, 0x2e, 0x6d, 0x61, 0x74,
  0x68, 0x2e, 0x61, 0x64, 0x64, 0x5f, 0x32, 0x2f, 0x41, 0x64, 0x64, 0x3b,
  0x6d, 0x6f, 0x64, 0x65, 0x6c, 0x5f, 0x32, 0x2f, 0x74, 0x66, 0x2e, 0x6e,
  0x6e, 0x2e, 0x63, 0x6f, 0x6e, 0x76, 0x6f, 0x6c, 0x75, 0x74, 0x69, 0x6f,
  0x6e, 0x5f, 0x32, 0x2f, 0x63, 0x6f, 0x6e, 0x76, 0x6f, 0x6c, 0x75, 0x74,
  0x69, 0x6f, 0x6e, 0x3b, 0x43, 0x6f, 0x6e, 0x73, 0x74, 0x5f, 0x36, 0x00,
  0x04, 0x00, 0x00, 0x00, 0x01, 0x00, 0x00, 0x00, 0x08, 0x00, 0x00, 0x00,
  0x08, 0x00, 0x00, 0x00, 0x10, 0x00, 0x00, 0x00, 0x22, 0xfa, 0xff, 0xff,
  0x00, 0x00, 0x00, 0x01, 0x10, 0x00, 0x00, 0x00, 0x10, 0x00, 0x00, 0x00,
  0x0d, 0x00, 0x00, 0x00, 0x30, 0x00, 0x00, 0x00, 0x0c, 0xfa, 0xff, 0xff,
  0x22, 0x00, 0x00, 0x00, 0x6d, 0x6f, 0x64, 0x65, 0x6c, 0x5f, 0x32, 0x2f,
  0x74, 0x66, 0x2e, 0x6e, 0x6e, 0x2e, 0x6d, 0x61, 0x78, 0x5f, 0x70, 0x6f,
  0x6f, 0x6c, 0x32, 0x64, 0x2f, 0x4d, 0x61, 0x78, 0x50, 0x6f, 0x6f, 0x6c,
  0x32, 0x64, 0x00, 0x00, 0x04, 0x00, 0x00, 0x00, 0x01, 0x00, 0x00, 0x00,
  0x08, 0x00, 0x00, 0x00, 0x08, 0x00, 0x00, 0x00, 0x08, 0x00, 0x00, 0x00,
  0x7a, 0xfa, 0xff, 0xff, 0x00, 0x00, 0x00, 0x01, 0x10, 0x00, 0x00, 0x00,
  0x10, 0x00, 0x00, 0x00, 0x0c, 0x00, 0x00, 0x00, 0x6c, 0x00, 0x00, 0x00,
  0x64, 0xfa, 0xff, 0xff, 0x5d, 0x00, 0x00, 0x00, 0x6d, 0x6f, 0x64, 0x65,
  0x6c, 0x5f, 0x32, 0x2f, 0x74, 0x66, 0x2e, 0x6e, 0x6e, 0x2e, 0x72, 0x65,
  0x6c, 0x75, 0x2f, 0x52, 0x65, 0x6c, 0x75, 0x3b, 0x6d, 0x6f, 0x64, 0x65,
  0x6c, 0x5f, 0x32, 0x2f, 0x74, 0x66, 0x2e, 0x6d, 0x61, 0x74, 0x68, 0x2e,
  0x61, 0x64, 0x64, 0x2f, 0x41, 0x64, 0x64, 0x3b, 0x6d, 0x6f, 0x64, 0x65,
  0x6c, 0x5f, 0x32, 0x2f, 0x74, 0x66, 0x2e, 0x6e, 0x6e, 0x2e, 0x63, 0x6f,
  0x6e, 0x76, 0x6f, 0x6c, 0x75, 0x74, 0x69, 0x6f, 0x6e, 0x2f, 0x63, 0x6f,
  0x6e, 0x76, 0x6f, 0x6c, 0x75, 0x74, 0x69, 0x6f, 0x6e, 0x3b, 0x43, 0x6f,
  0x6e, 0x73, 0x74, 0x5f, 0x38, 0x00, 0x00, 0x00, 0x04, 0x00, 0x00, 0x00,
  0x01, 0x00, 0x00, 0x00, 0x10, 0x00, 0x00, 0x00, 0x10, 0x00, 0x00, 0x00,
  0x08, 0x00, 0x00, 0x00, 0xde, 0xfb, 0xff, 0xff, 0x00, 0x00, 0x00, 0x01,
  0x14, 0x00, 0x00, 0x00, 0xa4, 0x01, 0x00, 0x00, 0x0b, 0x00, 0x00, 0x00,
  0x00, 0x00, 0x00, 0x09, 0xb0, 0x01, 0x00, 0x00, 0x2c, 0xfe, 0xff, 0xff,
  0x08, 0x00, 0x00, 0x00, 0x08, 0x01, 0x00, 0x00, 0x20, 0x00, 0x00, 0x00,
  0x00, 0x00, 0x00, 0x00, 0x00, 0x00, 0x00, 0x00, 0x00, 0x00, 0x00, 0x00,
  0x00, 0x00, 0x00, 0x00, 0x00, 0x00, 0x00, 0x00, 0x00, 0x00, 0x00, 0x00,
  0x00, 0x00, 0x00, 0x00, 0x00, 0x00, 0x00, 0x00, 0x00, 0x00, 0x00, 0x00,
  0x00, 0x00, 0x00, 0x00, 0x00, 0x00, 0x00, 0x00, 0x00, 0x00, 0x00, 0x00,
  0x00, 0x00, 0x00, 0x00, 0x00, 0x00, 0x00, 0x00, 0x00, 0x00, 0x00, 0x00,
  0x00, 0x00, 0x00, 0x00, 0x00, 0x00, 0x00, 0x00, 0x00, 0x00, 0x00, 0x00,
  0x00, 0x00, 0x00, 0x00, 0x00, 0x00, 0x00, 0x00, 0x00, 0x00, 0x00, 0x00,
  0x00, 0x00, 0x00, 0x00, 0x00, 0x00, 0x00, 0x00, 0x00, 0x00, 0x00, 0x00,
  0x00, 0x00, 0x00, 0x00, 0x00, 0x00, 0x00, 0x00, 0x00, 0x00, 0x00, 0x00,
  0x00, 0x00, 0x00, 0x00, 0x00, 0x00, 0x00, 0x00, 0x00, 0x00, 0x00, 0x00,
  0x00, 0x00, 0x00, 0x00, 0x00, 0x00, 0x00, 0x00, 0x00, 0x00, 0x00, 0x00,
  0x00, 0x00, 0x00, 0x00, 0x00, 0x00, 0x00, 0x00, 0x00, 0x00, 0x00, 0x00,
  0x00, 0x00, 0x00, 0x00, 0x00, 0x00, 0x00, 0x00, 0x00, 0x00, 0x00, 0x00,
  0x00, 0x00, 0x00, 0x00, 0x00, 0x00, 0x00, 0x00, 0x00, 0x00, 0x00, 0x00,
  0x00, 0x00, 0x00, 0x00, 0x00, 0x00, 0x00, 0x00, 0x00, 0x00, 0x00, 0x00,
  0x00, 0x00, 0x00, 0x00, 0x00, 0x00, 0x00, 0x00, 0x00, 0x00, 0x00, 0x00,
  0x00, 0x00, 0x00, 0x00, 0x00, 0x00, 0x00, 0x00, 0x00, 0x00, 0x00, 0x00,
  0x00, 0x00, 0x00, 0x00, 0x00, 0x00, 0x00, 0x00, 0x00, 0x00, 0x00, 0x00,
  0x00, 0x00, 0x00, 0x00, 0x00, 0x00, 0x00, 0x00, 0x00, 0x00, 0x00, 0x00,
  0x00, 0x00, 0x00, 0x00, 0x00, 0x00, 0x00, 0x00, 0x00, 0x00, 0x00, 0x00,
  0x00, 0x00, 0x00, 0x00, 0x00, 0x00, 0x00, 0x00, 0x00, 0x00, 0x00, 0x00,
  0x00, 0x00, 0x00, 0x00, 0x20, 0x00, 0x00, 0x00, 0xde, 0x1c, 0x67, 0x3b,
  0x9d, 0x5b, 0x2e, 0x3b, 0x3c, 0x36, 0x4b, 0x3b, 0xd1, 0xd1, 0x06, 0x3b,
  0x0c, 0x39, 0x33, 0x3a, 0x34, 0x47, 0x49, 0x3a, 0x73, 0xfe, 0x4d, 0x3b,
  0xbd, 0x30, 0x29, 0x3b, 0x4e, 0xdf, 0x12, 0x3b, 0x56, 0xfc, 0x1f, 0x3b,
  0x6b, 0xa8, 0x58, 0x3b, 0x84, 0x95, 0x1b, 0x3b, 0x9a, 0x88, 0x3b, 0x3b,
  0x43, 0x12, 0x23, 0x3b, 0xcf, 0x23, 0x38, 0x3a, 0xdd, 0xba, 0x17, 0x3b,
  0xe4, 0xb5, 0x5c, 0x3a, 0xa8, 0xee, 0x51, 0x3b, 0x5a, 0x86, 0x1d, 0x3a,
  0x4f, 0xdc, 0x29, 0x3a, 0x55, 0x83, 0x86, 0x3b, 0x49, 0x14, 0x60, 0x3b,
  0x88, 0xa8, 0x58, 0x3b, 0x09, 0xb9, 0x8d, 0x3b, 0x1d, 0x48, 0x19, 0x3a,
  0x83, 0xff, 0x52, 0x3b, 0xe3, 0xf2, 0x38, 0x3a, 0x4f, 0x08, 0x25, 0x3b,
  0x70, 0x92, 0x1e, 0x3a, 0x3a, 0xc0, 0x40, 0x3b, 0xd5, 0x65, 0x3a, 0x3b,
  0x18, 0x94, 0x49, 0x3a, 0x12, 0x00, 0x00, 0x00, 0x74, 0x66, 0x6c, 0x2e,
  0x70, 0x73, 0x65, 0x75, 0x64, 0x6f, 0x5f, 0x71, 0x63, 0x6f, 0x6e, 0x73,
  0x74, 0x31, 0x00, 0x00, 0x02, 0x00, 0x00, 0x00, 0x20, 0x00, 0x00, 0x00,
  0x00, 0x01, 0x00, 0x00, 0xb2, 0xfd, 0xff, 0xff, 0x00, 0x00, 0x00, 0x01,
  0x20, 0x00, 0x00, 0x00, 0xf4, 0x00, 0x00, 0x00, 0x0a, 0x00, 0x00, 0x00,
  0x00, 0x00, 0x00, 0x09, 0x00, 0x01, 0x00, 0x00, 0x0c, 0x00, 0x0c, 0x00,
  0x00, 0x00, 0x00, 0x00, 0x08, 0x00, 0x04, 0x00, 0x0c, 0x00, 0x00, 0x00,
  0x08, 0x00, 0x00, 0x00, 0x8c, 0x00, 0x00, 0x00, 0x10, 0x00, 0x00, 0x00,
  0x00, 0x00, 0x00, 0x00, 0x00, 0x00, 0x00, 0x00, 0x00, 0x00, 0x00, 0x00,
  0x00, 0x00, 0x00, 0x00, 0x00, 0x00, 0x00, 0x00, 0x00, 0x00, 0x00, 0x00,
  0x00, 0x00, 0x00, 0x00, 0x00, 0x00, 0x00, 0x00, 0x00, 0x00, 0x00, 0x00,
  0x00, 0x00, 0x00, 0x00, 0x00, 0x00, 0x00, 0x00, 0x00, 0x00, 0x00, 0x00,
  0x00, 0x00, 0x00, 0x00, 0x00, 0x00, 0x00, 0x00, 0x00, 0x00, 0x00, 0x00,
  0x00, 0x00, 0x00, 0x00, 0x00, 0x00, 0x00, 0x00, 0x00, 0x00, 0x00, 0x00,
  0x00, 0x00, 0x00, 0x00, 0x00, 0x00, 0x00, 0x00, 0x00, 0x00, 0x00, 0x00,
  0x00, 0x00, 0x00, 0x00, 0x00, 0x00, 0x00, 0x00, 0x00, 0x00, 0x00, 0x00,
  0x00, 0x00, 0x00, 0x00, 0x00, 0x00, 0x00, 0x00, 0x00, 0x00, 0x00, 0x00,
  0x00, 0x00, 0x00, 0x00, 0x00, 0x00, 0x00, 0x00, 0x00, 0x00, 0x00, 0x00,
  0x00, 0x00, 0x00, 0x00, 0x00, 0x00, 0x00, 0x00, 0x00, 0x00, 0x00, 0x00,
  0x10, 0x00, 0x00, 0x00, 0x31, 0x47, 0x07, 0x3b, 0x34, 0x84, 0x70, 0x3b,
  0x48, 0x3a, 0x08, 0x3b, 0x97, 0x48, 0x01, 0x3b, 0x5c, 0xfd, 0x58, 0x3b,
  0x79, 0x57, 0x4a, 0x3b, 0x59, 0x4d, 0x66, 0x3b, 0x2d, 0x42, 0x6a, 0x3b,
  0xcb, 0xef, 0x38, 0x3b, 0xba, 0x2d, 0x05, 0x3b, 0x77, 0xac, 0x0b, 0x3b,
  0x1a, 0xb6, 0x32, 0x3b, 0xc4, 0x82, 0x1f, 0x3b, 0x44, 0x56, 0x17, 0x3b,
  0xd9, 0x9e, 0x4e, 0x3b, 0xde, 0x89, 0x15, 0x3b, 0x11, 0x00, 0x00, 0x00,
  0x74, 0x66, 0x6c, 0x2e, 0x70, 0x73, 0x65, 0x75, 0x64, 0x6f, 0x5f, 0x71,
  0x63, 0x6f, 0x6e, 0x73, 0x74, 0x00, 0x00, 0x00, 0x04, 0x00, 0x00, 0x00,
  0x10, 0x00, 0x00, 0x00, 0x03, 0x00, 0x00, 0x00, 0x03, 0x00, 0x00, 0x00,
  0x08, 0x00, 0x00, 0x00, 0x0e, 0xfe, 0xff, 0xff, 0x00, 0x00, 0x00, 0x01,
  0x10, 0x00, 0x00, 0x00, 0x10, 0x00, 0x00, 0x00, 0x09, 0x00, 0x00, 0x00,
  0x1c, 0x00, 0x00, 0x00, 0xf8, 0xfd, 0xff, 0xff, 0x0f, 0x00, 0x00, 0x00,
  0x61, 0x72, 0x69, 0x74, 0x68, 0x2e, 0x63, 0x6f, 0x6e, 0x73, 0x74, 0x61,
  0x6e, 0x74, 0x37, 0x00, 0x01, 0x00, 0x00, 0x00, 0x10, 0x00, 0x00, 0x00,
  0x46, 0xfe, 0xff, 0xff, 0x00, 0x00, 0x00, 0x01, 0x10, 0x00, 0x00, 0x00,
  0x10, 0x00, 0x00, 0x00, 0x08, 0x00, 0x00, 0x00, 0x1c, 0x00, 0x00, 0x00,
  0x30, 0xfe, 0xff, 0xff, 0x0f, 0x00, 0x00, 0x00, 0x61, 0x72, 0x69, 0x74,
  0x68, 0x2e, 0x63, 0x6f, 0x6e, 0x73, 0x74, 0x61, 0x6e, 0x74, 0x36, 0x00,
  0x02, 0x00, 0x00, 0x00, 0x02, 0x00, 0x00, 0x00, 0x20, 0x00, 0x00, 0x00,
  0x82, 0xfe, 0xff, 0xff, 0x00, 0x00, 0x00, 0x01, 0x10, 0x00, 0x00, 0x00,
  0x10, 0x00, 0x00, 0x00, 0x07, 0x00, 0x00, 0x00, 0x1c, 0x00, 0x00, 0x00,
  0x6c, 0xfe, 0xff, 0xff, 0x0f, 0x00, 0x00, 0x00, 0x61, 0x72, 0x69, 0x74,
  0x68, 0x2e, 0x63, 0x6f, 0x6e, 0x73, 0x74, 0x61, 0x6e, 0x74, 0x35, 0x00,
  0x01, 0x00, 0x00, 0x00, 0x02, 0x00, 0x00, 0x00, 0xba, 0xfe, 0xff, 0xff,
  0x00, 0x00, 0x00, 0x01, 0x10, 0x00, 0x00, 0x00, 0x10, 0x00, 0x00, 0x00,
  0x06, 0x00, 0x00, 0x00, 0x1c, 0x00, 0x00, 0x00, 0xa4, 0xfe, 0xff, 0xff,
  0x0f, 0x00, 0x00, 0x00, 0x61, 0x72, 0x69, 0x74, 0x68, 0x2e, 0x63, 0x6f,
  0x6e, 0x73, 0x74, 0x61, 0x6e, 0x74, 0x34, 0x00, 0x01, 0x00, 0x00, 0x00,
  0x20, 0x00, 0x00, 0x00, 0xc2, 0xff, 0xff, 0xff, 0x00, 0x00, 0x00, 0x01,
  0x14, 0x00, 0x00, 0x00, 0x14, 0x00, 0x00, 0x00, 0x05, 0x00, 0x00, 0x00,
  0x00, 0x00, 0x00, 0x02, 0x1c, 0x00, 0x00, 0x00, 0xe0, 0xfe, 0xff, 0xff,
  0x0f, 0x00, 0x00, 0x00, 0x61, 0x72, 0x69, 0x74, 0x68, 0x2e, 0x63, 0x6f,
  0x6e, 0x73, 0x74, 0x61, 0x6e, 0x74, 0x33, 0x00, 0x01, 0x00, 0x00, 0x00,
  0x02, 0x00, 0x00, 0x00, 0x00, 0x00, 0x16, 0x00, 0x1c, 0x00, 0x18, 0x00,
  0x17, 0x00, 0x10, 0x00, 0x0c, 0x00, 0x08, 0x00, 0x00, 0x00, 0x00, 0x00,
  0x00, 0x00, 0x07, 0x00, 0x16, 0x00, 0x00, 0x00, 0x00, 0x00, 0x00, 0x01,
  0x14, 0x00, 0x00, 0x00, 0x14, 0x00, 0x00, 0x00, 0x04, 0x00, 0x00, 0x00,
  0x00, 0x00, 0x00, 0x02, 0x1c, 0x00, 0x00, 0x00, 0x34, 0xff, 0xff, 0xff,
  0x0f, 0x00, 0x00, 0x00, 0x61, 0x72, 0x69, 0x74, 0x68, 0x2e, 0x63, 0x6f,
  0x6e, 0x73, 0x74, 0x61, 0x6e, 0x74, 0x32, 0x00, 0x01, 0x00, 0x00, 0x00,
  0x04, 0x00, 0x00, 0x00, 0x82, 0xff, 0xff, 0xff, 0x00, 0x00, 0x00, 0x01,
  0x10, 0x00, 0x00, 0x00, 0x10, 0x00, 0x00, 0x00, 0x03, 0x00, 0x00, 0x00,
  0x1c, 0x00, 0x00, 0x00, 0x6c, 0xff, 0xff, 0xff, 0x0f, 0x00, 0x00, 0x00,
  0x61, 0x72, 0x69, 0x74, 0x68, 0x2e, 0x63, 0x6f, 0x6e, 0x73, 0x74, 0x61,
  0x6e, 0x74, 0x31, 0x00, 0x04, 0x00, 0x00, 0x00, 0x08, 0x00, 0x00, 0x00,
  0x03, 0x00, 0x00, 0x00, 0x03, 0x00, 0x00, 0x00, 0x03, 0x00, 0x00, 0x00,
  0xc6, 0xff, 0xff, 0xff, 0x00, 0x00, 0x00, 0x01, 0x10, 0x00, 0x00, 0x00,
  0x10, 0x00, 0x00, 0x00, 0x02, 0x00, 0x00, 0x00, 0x1c, 0x00, 0x00, 0x00,
  0xb0, 0xff, 0xff, 0xff, 0x0e, 0x00, 0x00, 0x00, 0x61, 0x72, 0x69, 0x74,
  0x68, 0x2e, 0x63, 0x6f, 0x6e, 0x73, 0x74, 0x61, 0x6e, 0x74, 0x00, 0x00,
  0x01, 0x00, 0x00, 0x00, 0x08, 0x00, 0x00, 0x00, 0x00, 0x00, 0x16, 0x00,
  0x18, 0x00, 0x14, 0x00, 0x00, 0x00, 0x10, 0x00, 0x0c, 0x00, 0x08, 0x00,
  0x00, 0x00, 0x00, 0x00, 0x00, 0x00, 0x07, 0x00, 0x16, 0x00, 0x00, 0x00,
  0x00, 0x00, 0x00, 0x01, 0x14, 0x00, 0x00, 0x00, 0x14, 0x00, 0x00, 0x00,
  0x01, 0x00, 0x00, 0x00, 0x28, 0x00, 0x00, 0x00, 0x04, 0x00, 0x04, 0x00,
  0x04, 0x00, 0x00, 0x00, 0x17, 0x00, 0x00, 0x00, 0x73, 0x65, 0x72, 0x76,
  0x69, 0x6e, 0x67, 0x5f, 0x64, 0x65, 0x66, 0x61, 0x75, 0x6c, 0x74, 0x5f,
  0x69, 0x6e, 0x70, 0x75, 0x74, 0x3a, 0x30, 0x00, 0x04, 0x00, 0x00, 0x00,
  0x01, 0x00, 0x00, 0x00, 0x10, 0x00, 0x00, 0x00, 0x10, 0x00, 0x00, 0x00,
  0x03, 0x00, 0x00, 0x00, 0x06, 0x00, 0x00, 0x00, 0x70, 0x00, 0x00, 0x00,
  0x54, 0x00, 0x00, 0x00, 0x38, 0x00, 0x00, 0x00, 0x28, 0x00, 0x00, 0x00,
  0x14, 0x00, 0x00, 0x00, 0x04, 0x00, 0x00, 0x00, 0xcc, 0xff, 0xff, 0xff,
  0x19, 0x00, 0x00, 0x00, 0x00, 0x00, 0x00, 0x19, 0xc0, 0xff, 0xff, 0xff,
  0x09, 0x00, 0x00, 0x00, 0x0c, 0x00, 0x00, 0x00, 0x00, 0x00, 0x00, 0x09,
  0xe8, 0xff, 0xff, 0xff, 0x16, 0x00, 0x00, 0x00, 0x00, 0x00, 0x00, 0x16,
  0xf4, 0xff, 0xff, 0xff, 0x27, 0x00, 0x00, 0x00, 0x00, 0x00, 0x00, 0x27,
  0x0c, 0x00, 0x0c, 0x00, 0x0b, 0x00, 0x00, 0x00, 0x00, 0x00, 0x04, 0x00,
  0x0c, 0x00, 0x00, 0x00, 0x11, 0x00, 0x00, 0x00, 0x00, 0x00, 0x00, 0x11,
  0x0c, 0x00, 0x10, 0x00, 0x0f, 0x00, 0x00, 0x00, 0x08, 0x00, 0x04, 0x00,
  0x0c, 0x00, 0x00, 0x00, 0x03, 0x00, 0x00, 0x00, 0x05, 0x00, 0x00, 0x00,
  0x00, 0x00, 0x00, 0x03
};
unsigned int bottle_can_simple_cnn_mps_tflite_len = 14656;
