unsigned char bottle_can_simple_cnn_mps_tflite[] = {
  0x1c, 0x00, 0x00, 0x00, 0x54, 0x46, 0x4c, 0x33, 0x14, 0x00, 0x20, 0x00,
  0x1c, 0x00, 0x18, 0x00, 0x14, 0x00, 0x10, 0x00, 0x0c, 0x00, 0x00, 0x00,
  0x08, 0x00, 0x04, 0x00, 0x14, 0x00, 0x00, 0x00, 0x1c, 0x00, 0x00, 0x00,
  0x84, 0x00, 0x00, 0x00, 0x04, 0x01, 0x00, 0x00, 0x54, 0x29, 0x00, 0x00,
  0x64, 0x29, 0x00, 0x00, 0xac, 0x3b, 0x00, 0x00, 0x03, 0x00, 0x00, 0x00,
  0x01, 0x00, 0x00, 0x00, 0x04, 0x00, 0x00, 0x00, 0x56, 0xd5, 0xff, 0xff,
  0x0c, 0x00, 0x00, 0x00, 0x1c, 0x00, 0x00, 0x00, 0x3c, 0x00, 0x00, 0x00,
  0x0f, 0x00, 0x00, 0x00, 0x73, 0x65, 0x72, 0x76, 0x69, 0x6e, 0x67, 0x5f,
  0x64, 0x65, 0x66, 0x61, 0x75, 0x6c, 0x74, 0x00, 0x01, 0x00, 0x00, 0x00,
  0x04, 0x00, 0x00, 0x00, 0x70, 0xff, 0xff, 0xff, 0x15, 0x00, 0x00, 0x00,
  0x04, 0x00, 0x00, 0x00, 0x08, 0x00, 0x00, 0x00, 0x6f, 0x75, 0x74, 0x70,
  0x75, 0x74, 0x5f, 0x30, 0x00, 0x00, 0x00, 0x00, 0x01, 0x00, 0x00, 0x00,
  0x04, 0x00, 0x00, 0x00, 0x5e, 0xd6, 0xff, 0xff, 0x04, 0x00, 0x00, 0x00,
  0x05, 0x00, 0x00, 0x00, 0x69, 0x6e, 0x70, 0x75, 0x74, 0x00, 0x00, 0x00,
  0x03, 0x00, 0x00, 0x00, 0x5c, 0x00, 0x00, 0x00, 0x2c, 0x00, 0x00, 0x00,
  0x04, 0x00, 0x00, 0x00, 0xb8, 0xff, 0xff, 0xff, 0x19, 0x00, 0x00, 0x00,
  0x04, 0x00, 0x00, 0x00, 0x13, 0x00, 0x00, 0x00, 0x43, 0x4f, 0x4e, 0x56,
  0x45, 0x52, 0x53, 0x49, 0x4f, 0x4e, 0x5f, 0x4d, 0x45, 0x54, 0x41, 0x44,
  0x41, 0x54, 0x41, 0x00, 0xdc, 0xff, 0xff, 0xff, 0x18, 0x00, 0x00, 0x00,
  0x04, 0x00, 0x00, 0x00, 0x13, 0x00, 0x00, 0x00, 0x6d, 0x69, 0x6e, 0x5f,
  0x72, 0x75, 0x6e, 0x74, 0x69, 0x6d, 0x65, 0x5f, 0x76, 0x65, 0x72, 0x73,
  0x69, 0x6f, 0x6e, 0x00, 0x08, 0x00, 0x0c, 0x00, 0x08, 0x00, 0x04, 0x00,
  0x08, 0x00, 0x00, 0x00, 0x17, 0x00, 0x00, 0x00, 0x04, 0x00, 0x00, 0x00,
  0x13, 0x00, 0x00, 0x00, 0x6d, 0x69, 0x6e, 0x5f, 0x72, 0x75, 0x6e, 0x74,
  0x69, 0x6d, 0x65, 0x5f, 0x76, 0x65, 0x72, 0x73, 0x69, 0x6f, 0x6e, 0x00,
  0x1a, 0x00, 0x00, 0x00, 0x4c, 0x28, 0x00, 0x00, 0x44, 0x28, 0x00, 0x00,
  0x24, 0x28, 0x00, 0x00, 0x0c, 0x28, 0x00, 0x00, 0xf4, 0x27, 0x00, 0x00,
  0xa4, 0x27, 0x00, 0x00, 0x14, 0x27, 0x00, 0x00, 0x04, 0x07, 0x00, 0x00,
  0xb4, 0x06, 0x00, 0x00, 0x24, 0x02, 0x00, 0x00, 0xf4, 0x01, 0x00, 0x00,
  0x0c, 0x01, 0x00, 0x00, 0x04, 0x01, 0x00, 0x00, 0xfc, 0x00, 0x00, 0x00,
  0xf4, 0x00, 0x00, 0x00, 0xec, 0x00, 0x00, 0x00, 0xe4, 0x00, 0x00, 0x00,
  0xdc, 0x00, 0x00, 0x00, 0xd4, 0x00, 0x00, 0x00, 0xcc, 0x00, 0x00, 0x00,
  0xc4, 0x00, 0x00, 0x00, 0xbc, 0x00, 0x00, 0x00, 0xb4, 0x00, 0x00, 0x00,
  0x94, 0x00, 0x00, 0x00, 0x74, 0x00, 0x00, 0x00, 0x04, 0x00, 0x00, 0x00,
  0x62, 0xd7, 0xff, 0xff, 0x04, 0x00, 0x00, 0x00, 0x60, 0x00, 0x00, 0x00,
  0x0c, 0x00, 0x00, 0x00, 0x08, 0x00, 0x0e, 0x00, 0x08, 0x00, 0x04, 0x00,
  0x08, 0x00, 0x00, 0x00, 0x10, 0x00, 0x00, 0x00, 0x28, 0x00, 0x00, 0x00,
  0x00, 0x00, 0x06, 0x00, 0x08, 0x00, 0x04, 0x00, 0x06, 0x00, 0x00, 0x00,
  0x04, 0x00, 0x00, 0x00, 0x01, 0x00, 0x00, 0x00, 0xeb, 0x03, 0x00, 0x00,
  0x0c, 0x00, 0x18, 0x00, 0x14, 0x00, 0x10, 0x00, 0x0c, 0x00, 0x04, 0x00,
  0x0c, 0x00, 0x00, 0x00, 0xb9, 0x1c, 0x42, 0x90, 0xb9, 0x5b, 0x71, 0x1b,
  0x01, 0x00, 0x00, 0x00, 0x02, 0x00, 0x00, 0x00, 0x04, 0x00, 0x00, 0x00,
  0x06, 0x00, 0x00, 0x00, 0x32, 0x2e, 0x31, 0x38, 0x2e, 0x30, 0x00, 0x00,
  0xce, 0xd7, 0xff, 0xff, 0x04, 0x00, 0x00, 0x00, 0x10, 0x00, 0x00, 0x00,
  0x00, 0x00, 0x00, 0x00, 0x00, 0x00, 0x00, 0x00, 0x00, 0x00, 0x00, 0x00,
  0x00, 0x00, 0x00, 0x00, 0xea, 0xd7, 0xff, 0xff, 0x04, 0x00, 0x00, 0x00,
  0x10, 0x00, 0x00, 0x00, 0x31, 0x2e, 0x31, 0x34, 0x2e, 0x30, 0x00, 0x00,
  0x00, 0x00, 0x00, 0x00, 0x00, 0x00, 0x00, 0x00, 0x10, 0xc7, 0xff, 0xff,
  0x14, 0xc7, 0xff, 0xff, 0x18, 0xc7, 0xff, 0xff, 0x1c, 0xc7, 0xff, 0xff,
  0x20, 0xc7, 0xff, 0xff, 0x24, 0xc7, 0xff, 0xff, 0x28, 0xc7, 0xff, 0xff,
  0x2c, 0xc7, 0xff, 0xff, 0x30, 0xc7, 0xff, 0xff, 0x34, 0xc7, 0xff, 0xff,
  0x38, 0xc7, 0xff, 0xff, 0x32, 0xd8, 0xff, 0xff, 0x04, 0x00, 0x00, 0x00,
  0xd8, 0x00, 0x00, 0x00, 0x5e, 0x05, 0x13, 0xcf, 0x26, 0x92, 0x53, 0x17,
  0xb4, 0xdb, 0x41, 0x19, 0x4a, 0xeb, 0x41, 0xfd, 0x81, 0xa9, 0x12, 0xed,
  0x04, 0x76, 0x1d, 0x5e, 0x3e, 0xa7, 0x89, 0x3c, 0x2e, 0x99, 0x0c, 0x33,
  0xd9, 0x6b, 0xaf, 0xf4, 0x2f, 0x1f, 0xab, 0x2c, 0xda, 0xf0, 0x7f, 0xc4,
  0xb9, 0xb8, 0x50, 0xe9, 0x01, 0x23, 0xdd, 0x2c, 0x1d, 0xc2, 0x07, 0x37,
  0xf2, 0x21, 0xc2, 0xfc, 0x17, 0x01, 0x2f, 0xbf, 0xc3, 0x99, 0x0d, 0x0f,
  0xe2, 0x21, 0x17, 0x41, 0x03, 0xe6, 0x81, 0x2b, 0xd9, 0xe5, 0x10, 0x4e,
  0x39, 0x55, 0x9b, 0x0a, 0xcf, 0x81, 0x6c, 0x8a, 0xb7, 0x7c, 0x71, 0xb9,
  0xf5, 0xf7, 0xe3, 0x58, 0x8c, 0x35, 0x6f, 0x0d, 0x15, 0xd0, 0x12, 0x26,
  0xae, 0x24, 0xea, 0xdc, 0x94, 0xde, 0x91, 0xce, 0xc8, 0x91, 0xea, 0xb9,
  0x06, 0xad, 0x24, 0x59, 0x1e, 0x46, 0x7f, 0xde, 0x48, 0x5a, 0x1c, 0x41,
  0x53, 0x17, 0xeb, 0x11, 0xc9, 0x07, 0x1f, 0x04, 0x37, 0x47, 0xdc, 0x37,
  0xfb, 0xe6, 0xd2, 0x19, 0xb6, 0xff, 0xe1, 0x01, 0x59, 0x7f, 0xba, 0x14,
  0x41, 0xe3, 0xd7, 0xa7, 0xf8, 0x49, 0x2e, 0xa2, 0x0f, 0x3b, 0x5b, 0x12,
  0x53, 0x43, 0xc9, 0x3b, 0x55, 0x06, 0x32, 0x1f, 0xbd, 0x56, 0xe1, 0xd4,
  0x0e, 0xe5, 0xcd, 0x81, 0x41, 0x02, 0xf8, 0xf2, 0xc7, 0xa8, 0x39, 0xd5,
  0x9d, 0x2c, 0x95, 0x0a, 0x95, 0xf2, 0x5f, 0x2c, 0x15, 0x58, 0xa8, 0xe2,
  0x67, 0xd4, 0x5f, 0x3f, 0xa1, 0x37, 0x7f, 0x3b, 0xde, 0x16, 0xdd, 0xec,
  0x1f, 0x22, 0xe7, 0x46, 0x16, 0xd9, 0xff, 0xff, 0x04, 0x00, 0x00, 0x00,
  0x20, 0x00, 0x00, 0x00, 0x5d, 0x04, 0x00, 0x00, 0xd4, 0x0f, 0x00, 0x00,
  0xc8, 0x06, 0x00, 0x00, 0x48, 0x04, 0x00, 0x00, 0xb3, 0xfb, 0xff, 0xff,
  0x6c, 0x06, 0x00, 0x00, 0x98, 0xeb, 0xff, 0xff, 0x54, 0x1b, 0x00, 0x00,
  0x42, 0xd9, 0xff, 0xff, 0x04, 0x00, 0x00, 0x00, 0x80, 0x04, 0x00, 0x00,
  0xee, 0x1c, 0x0c, 0x5d, 0xd6, 0x11, 0xff, 0xe4, 0x14, 0x26, 0x1a, 0x25,
  0xfc, 0xd5, 0xf4, 0xc3, 0xf8, 0x2c, 0x00, 0x2f, 0x0d, 0x0e, 0x1e, 0xfa,
  0x1a, 0x60, 0xeb, 0x28, 0xf2, 0xf0, 0xd3, 0x06, 0xb4, 0x05, 0xc7, 0x4e,
  0xfa, 0x81, 0xe4, 0xb9, 0xc8, 0x21, 0x02, 0x0f, 0x03, 0xbd, 0xd1, 0x2b,
  0xf3, 0x20, 0xdf, 0x03, 0x2b, 0x42, 0x01, 0xfc, 0xca, 0x22, 0xc3, 0x21,
  0x3c, 0xe5, 0xbb, 0x1a, 0xfd, 0x0a, 0x15, 0xd0, 0x1c, 0xf7, 0xee, 0x5c,
  0xee, 0x07, 0xb2, 0x31, 0xe3, 0xed, 0x9a, 0xdf, 0x1c, 0xef, 0xbd, 0x0a,
  0xfe, 0xeb, 0x06, 0x39, 0xe6, 0x39, 0x35, 0xfe, 0xf7, 0xf0, 0x7f, 0x1e,
  0xf5, 0x1d, 0xb5, 0x21, 0xe7, 0x05, 0xa6, 0x0a, 0x56, 0xc4, 0xb9, 0xc2,
  0xd0, 0x0f, 0xdd, 0x0b, 0xd0, 0x17, 0xd9, 0xe5, 0x0f, 0xca, 0xfd, 0xd0,
  0x23, 0x09, 0xd4, 0x0a, 0xdc, 0xba, 0x3e, 0x17, 0x12, 0x00, 0x1b, 0xe0,
  0xf6, 0x2b, 0xda, 0xfe, 0x08, 0xbf, 0xdd, 0xeb, 0x63, 0x3d, 0xb0, 0x18,
  0xe5, 0x19, 0xc7, 0x0a, 0x1e, 0x20, 0xf8, 0xdb, 0xe8, 0x15, 0xdf, 0x0f,
  0xee, 0xf9, 0xf5, 0xe2, 0xe0, 0x5d, 0xef, 0xfd, 0xfa, 0x13, 0x0e, 0xb9,
  0xe6, 0x1b, 0xe8, 0x1d, 0xd0, 0x16, 0xcf, 0x0a, 0xea, 0x1f, 0xc8, 0x24,
  0x0d, 0x35, 0xcb, 0xfa, 0xd8, 0x02, 0xc7, 0xfc, 0xcf, 0x27, 0xe9, 0xd0,
  0x10, 0x27, 0xf6, 0x74, 0xcd, 0xf0, 0x15, 0xc2, 0x0e, 0x1c, 0x01, 0x7f,
  0x62, 0x2a, 0x12, 0xf7, 0xd9, 0xb5, 0xcf, 0x68, 0x52, 0x1a, 0x10, 0xd5,
  0xea, 0x51, 0xaf, 0x54, 0x29, 0xda, 0xc9, 0x81, 0x1a, 0xf2, 0xc7, 0x76,
  0xd9, 0xf4, 0x17, 0xf7, 0xcd, 0xf0, 0xe3, 0x51, 0xcc, 0xbf, 0xfc, 0xb5,
  0x3a, 0x5b, 0xf6, 0x0f, 0x1a, 0x51, 0xe2, 0xee, 0x03, 0x4a, 0x13, 0x40,
  0x34, 0x0e, 0xa5, 0xc4, 0xd4, 0x64, 0xbf, 0x2e, 0x29, 0x14, 0xda, 0xc3,
  0xc6, 0x33, 0xe1, 0xf9, 0xe0, 0x1e, 0x25, 0xfc, 0xce, 0x22, 0x00, 0xbb,
  0x9f, 0xcb, 0x08, 0xfa, 0x86, 0x3f, 0xf9, 0xab, 0xe8, 0xf0, 0x19, 0x9f,
  0x38, 0x81, 0xd5, 0x95, 0x05, 0xe8, 0x30, 0x31, 0xc7, 0xc8, 0xc8, 0xbe,
  0x3c, 0x20, 0x46, 0xf7, 0xc0, 0xa1, 0x20, 0xd5, 0x13, 0x2b, 0xf4, 0x19,
  0x32, 0x95, 0x9a, 0xa6, 0xcf, 0xff, 0x44, 0xe0, 0x13, 0xde, 0x42, 0x81,
  0xb3, 0xf2, 0x40, 0xab, 0xc8, 0xf7, 0x6a, 0xd8, 0xe1, 0x0b, 0xcc, 0xbe,
  0x43, 0xde, 0x33, 0xb7, 0xd4, 0xcf, 0x28, 0x07, 0x19, 0xc5, 0x32, 0xd7,
  0x40, 0x46, 0xf3, 0xaf, 0xff, 0xba, 0x33, 0x09, 0x27, 0xd6, 0x0f, 0xca,
  0x20, 0xb9, 0xa5, 0xa7, 0xa2, 0x1c, 0x3f, 0xfb, 0x8b, 0xb1, 0x14, 0x81,
  0xa9, 0x57, 0xd9, 0x3a, 0xcd, 0x9f, 0x36, 0xee, 0xd4, 0xde, 0x30, 0x27,
  0x74, 0x01, 0x19, 0xc0, 0xe8, 0xe1, 0x67, 0xcd, 0xc3, 0xfa, 0xe9, 0xb8,
  0x58, 0xfa, 0xa8, 0xdf, 0x2d, 0xbc, 0x47, 0xef, 0xea, 0xfb, 0xa2, 0xd8,
  0xd3, 0xff, 0x20, 0xea, 0xf3, 0xe8, 0x0c, 0xec, 0x32, 0xe6, 0xf4, 0xd3,
  0x5f, 0x1b, 0xd6, 0x48, 0xfd, 0xed, 0x44, 0xec, 0x5c, 0x06, 0xf4, 0x0a,
  0xb2, 0x37, 0xfa, 0x22, 0xf5, 0x3b, 0xdb, 0x2b, 0xd6, 0x08, 0xd6, 0x21,
  0x39, 0x3c, 0xe1, 0x28, 0x16, 0x2b, 0xed, 0x55, 0xeb, 0x81, 0xd2, 0xaf,
  0xc4, 0xd5, 0x0b, 0x4e, 0x02, 0x08, 0x03, 0x1d, 0x10, 0xd8, 0xef, 0x41,
  0x42, 0x7f, 0x05, 0x0f, 0xc2, 0xc4, 0xdb, 0x3b, 0x18, 0xe3, 0xed, 0xe6,
  0x1e, 0x05, 0xd6, 0xf5, 0x0f, 0xf5, 0xe6, 0xed, 0xdf, 0x24, 0xe0, 0x17,
  0x08, 0xfa, 0xfd, 0xe3, 0xdf, 0x17, 0xd4, 0x0f, 0x16, 0x0a, 0xc3, 0x25,
  0x24, 0xd5, 0x18, 0xeb, 0x15, 0xff, 0x0d, 0xe4, 0x00, 0xde, 0x00, 0xbb,
  0xdf, 0x35, 0xcb, 0xe7, 0xdb, 0x01, 0x1b, 0xff, 0xbe, 0x21, 0xe1, 0x1f,
  0x5b, 0xaf, 0xf6, 0xd2, 0xf5, 0x18, 0xf3, 0x0c, 0x0e, 0xfc, 0xe2, 0xe9,
  0x0a, 0x22, 0xd9, 0xc9, 0xd2, 0x07, 0x19, 0xef, 0xff, 0xf3, 0xcb, 0xd3,
  0x32, 0xfc, 0xed, 0x10, 0xd0, 0x1b, 0x0a, 0x08, 0x16, 0x07, 0xf8, 0x1f,
  0x23, 0xe1, 0xed, 0xcf, 0x03, 0xd5, 0x0d, 0x7f, 0x11, 0xed, 0xff, 0xf1,
  0x28, 0x1b, 0x1c, 0xde, 0xe9, 0xfd, 0xff, 0xe9, 0x06, 0x38, 0xcc, 0xab,
  0xb0, 0xe6, 0xe8, 0x02, 0xf5, 0x1d, 0xe3, 0xe0, 0xa8, 0xf3, 0xfb, 0xf4,
  0x59, 0xfc, 0x07, 0x49, 0x06, 0x20, 0xf9, 0x0b, 0x1a, 0x29, 0x00, 0x32,
  0xcb, 0xd4, 0x02, 0xec, 0xf5, 0x04, 0x19, 0x29, 0x87, 0xf8, 0xf2, 0x05,
  0xfa, 0x04, 0xf3, 0x2a, 0x1b, 0x11, 0x2e, 0x17, 0xed, 0x03, 0xdf, 0x7f,
  0x03, 0x0a, 0x17, 0x04, 0xbb, 0xcf, 0x23, 0x31, 0xd9, 0xf2, 0xe6, 0x11,
  0x2e, 0xac, 0xdb, 0xe2, 0xc9, 0x00, 0x27, 0x09, 0x46, 0xb9, 0xfc, 0xc3,
  0xc5, 0x19, 0x3f, 0xfd, 0xcc, 0xd9, 0x5b, 0xc4, 0xa3, 0x0f, 0x31, 0xf8,
  0xf0, 0xd0, 0x1f, 0xc7, 0xe2, 0x03, 0x04, 0x07, 0x7f, 0xce, 0x87, 0xa4,
  0x1f, 0xe4, 0xf1, 0xd6, 0x06, 0xe1, 0x3c, 0x04, 0x28, 0x26, 0xf1, 0xdc,
  0x9d, 0xcb, 0x18, 0x0f, 0x20, 0xaa, 0xf9, 0xd7, 0x34, 0x9f, 0xd4, 0xee,
  0xfd, 0x00, 0xf4, 0x0c, 0x10, 0xd1, 0xe3, 0x19, 0x4b, 0x09, 0x15, 0xcb,
  0x4b, 0x14, 0xe0, 0xf0, 0x14, 0xfc, 0x19, 0x0b, 0x0b, 0x44, 0xe9, 0x3d,
  0xb7, 0x00, 0xef, 0xe0, 0xf4, 0x30, 0xd7, 0x7f, 0xe7, 0xcd, 0x30, 0xe8,
  0x2d, 0x32, 0xfd, 0xfb, 0xe9, 0xf3, 0xf3, 0x24, 0xe6, 0x19, 0xd7, 0x37,
  0xe2, 0xcf, 0xef, 0xda, 0xe1, 0xf2, 0xf4, 0x27, 0xdb, 0x96, 0x13, 0x20,
  0x1a, 0x05, 0xfa, 0xe3, 0xfc, 0x25, 0xea, 0x28, 0xe2, 0xdf, 0xb6, 0x04,
  0x10, 0x5c, 0xeb, 0xf2, 0xc9, 0xeb, 0xcd, 0xee, 0x13, 0x16, 0xde, 0x1e,
  0xf7, 0x15, 0xeb, 0x1a, 0x0c, 0x14, 0xdc, 0xfa, 0xbf, 0x01, 0x81, 0xff,
  0xd5, 0xce, 0xce, 0x1a, 0xe7, 0x23, 0x84, 0xe8, 0xc2, 0x05, 0xc6, 0x1b,
  0x24, 0x49, 0xef, 0xdb, 0xd5, 0x05, 0xf3, 0xf0, 0x08, 0x32, 0xd1, 0x1e,
  0x94, 0xe6, 0x00, 0x0f, 0x05, 0x43, 0xda, 0x0f, 0xcc, 0x14, 0xf2, 0xf8,
  0x20, 0x22, 0xeb, 0xe4, 0x41, 0x33, 0xf8, 0x02, 0x0a, 0x2d, 0x1c, 0x3a,
  0xed, 0xf0, 0xee, 0xf9, 0x06, 0x08, 0x1c, 0x30, 0xfd, 0x03, 0x1b, 0x0e,
  0xb5, 0x4a, 0x37, 0x1e, 0xec, 0xf7, 0x42, 0x1a, 0x1d, 0x10, 0x2d, 0x0b,
  0xf8, 0x77, 0xd1, 0x14, 0xf4, 0x94, 0x81, 0xee, 0xee, 0xdf, 0x93, 0xf7,
  0xf9, 0x34, 0xe1, 0x14, 0x31, 0xb4, 0xe4, 0xff, 0xef, 0xee, 0xe2, 0x15,
  0xf1, 0x0b, 0x02, 0x0f, 0xee, 0xb1, 0x0d, 0x29, 0xc8, 0x31, 0xb8, 0x17,
  0xdb, 0xc2, 0xc0, 0xed, 0xe6, 0x04, 0xfc, 0xf3, 0x11, 0xc0, 0xf8, 0x09,
  0xdf, 0x19, 0xec, 0x23, 0xd2, 0xde, 0x25, 0xfe, 0x04, 0xd1, 0xf5, 0x01,
  0x0f, 0xb8, 0x19, 0xea, 0x06, 0xda, 0x35, 0x39, 0x04, 0x02, 0xe3, 0xdf,
  0x81, 0xf8, 0x64, 0xfd, 0x11, 0xd1, 0xf1, 0xd5, 0xb5, 0x06, 0x2f, 0x0d,
  0x12, 0xc5, 0xc6, 0xd9, 0x94, 0xb2, 0x09, 0xdd, 0xa5, 0xf1, 0x13, 0xde,
  0xdb, 0xbc, 0xd9, 0xb2, 0x32, 0xfe, 0xf3, 0x0e, 0x14, 0xb3, 0xa1, 0x1d,
  0xc1, 0x21, 0x60, 0x2e, 0xf3, 0xfb, 0xbf, 0x14, 0xad, 0xd5, 0x1e, 0xea,
  0x5a, 0xe5, 0xb6, 0x21, 0x32, 0x0c, 0xa3, 0x35, 0x0a, 0xeb, 0x04, 0xf6,
  0x28, 0x23, 0xee, 0xf1, 0x10, 0xfc, 0xfd, 0xfe, 0xf8, 0xf8, 0xce, 0x01,
  0xfc, 0xe1, 0xea, 0xe9, 0x02, 0xeb, 0x1f, 0x29, 0xf9, 0xfc, 0x07, 0xf9,
  0x33, 0x04, 0x03, 0xfd, 0x0e, 0x1d, 0xe3, 0x16, 0xfa, 0x2d, 0x81, 0x0b,
  0xf3, 0xdd, 0xd3, 0xf8, 0x18, 0x2a, 0x17, 0x2c, 0xe5, 0xcc, 0x08, 0xfc,
  0x25, 0x1c, 0x15, 0xec, 0x03, 0x1a, 0xdd, 0xfc, 0x0a, 0x18, 0xe1, 0x1f,
  0xda, 0x13, 0xf1, 0xe6, 0xfb, 0x1c, 0xf1, 0x24, 0xf0, 0xdc, 0x0f, 0x04,
  0xd6, 0x0d, 0x0a, 0xf3, 0x09, 0xc9, 0x03, 0x0f, 0xf4, 0x37, 0xcf, 0xcf,
  0x0b, 0xbf, 0xfd, 0xe5, 0x10, 0x42, 0xde, 0xd7, 0xed, 0x18, 0xd7, 0x1f,
  0x42, 0x38, 0x1e, 0x34, 0x13, 0xcd, 0xff, 0xc7, 0x0f, 0x5b, 0x05, 0xe8,
  0xdf, 0xb9, 0x11, 0x12, 0xcd, 0x5f, 0xed, 0xc2, 0xd5, 0x27, 0xde, 0x50,
  0x04, 0x51, 0x08, 0x47, 0x0b, 0xcc, 0x18, 0xfa, 0xce, 0x7f, 0xef, 0x17,
  0xc2, 0xf7, 0x10, 0x28, 0x1f, 0x3d, 0xe3, 0xd9, 0x15, 0x2f, 0xdd, 0x2a,
  0xce, 0xdd, 0xff, 0xff, 0x04, 0x00, 0x00, 0x00, 0x40, 0x00, 0x00, 0x00,
  0xca, 0x0b, 0x00, 0x00, 0xf8, 0x12, 0x00, 0x00, 0x8c, 0xf8, 0xff, 0xff,
  0x75, 0x13, 0x00, 0x00, 0x98, 0xde, 0xff, 0xff, 0x72, 0xf7, 0xff, 0xff,
  0x73, 0xf0, 0xff, 0xff, 0x2a, 0xf7, 0xff, 0xff, 0xa9, 0xfb, 0xff, 0xff,
  0xee, 0xf5, 0xff, 0xff, 0x36, 0xfe, 0xff, 0xff, 0x42, 0x0f, 0x00, 0x00,
  0xc1, 0x10, 0x00, 0x00, 0x37, 0x08, 0x00, 0x00, 0x6e, 0x01, 0x00, 0x00,
  0x27, 0x02, 0x00, 0x00, 0x1a, 0xde, 0xff, 0xff, 0x04, 0x00, 0x00, 0x00,
  0x00, 0x20, 0x00, 0x00, 0xa0, 0xcd, 0x8f, 0xf7, 0xa8, 0x1b, 0x99, 0x51,
  0x4f, 0x06, 0x96, 0x09, 0x92, 0xe4, 0x27, 0xa2, 0x27, 0xcb, 0x94, 0x1f,
  0xba, 0x08, 0x2c, 0xb4, 0x16, 0x50, 0xcd, 0x18, 0xfa, 0x26, 0x2d, 0xca,
  0xa5, 0x0c, 0xf1, 0xe2, 0xa1, 0xeb, 0xea, 0x92, 0x38, 0xd2, 0xe0, 0xf5,
  0xae, 0x4d, 0x18, 0x15, 0x96, 0x1f, 0x35, 0x3c, 0x48, 0x08, 0xf0, 0xcc,
  0x1c, 0xb5, 0x29, 0x39, 0x36, 0xf5, 0x4a, 0x41, 0xd1, 0x23, 0x00, 0x05,
  0x9a, 0xf7, 0x63, 0x39, 0x53, 0xbc, 0xb0, 0xb9, 0x2b, 0x2b, 0xc6, 0x40,
  0xa2, 0xcf, 0xba, 0xd9, 0xc8, 0x10, 0xc7, 0x52, 0x53, 0xca, 0x0a, 0xd6,
  0xc9, 0xfb, 0x07, 0x29, 0xaa, 0xed, 0x4f, 0xab, 0x4d, 0xd8, 0xd1, 0xb1,
  0x9c, 0x95, 0x0c, 0x22, 0xc5, 0xd9, 0xa4, 0xf9, 0x93, 0xc4, 0x2f, 0x0c,
  0xf8, 0xbf, 0xed, 0x0b, 0x8d, 0xf3, 0xf2, 0x09, 0x42, 0xc7, 0xf3, 0xd2,
  0xa7, 0xad, 0xba, 0x36, 0xbe, 0x04, 0xd5, 0x29, 0x0e, 0xc4, 0x29, 0x44,
  0x35, 0x05, 0x97, 0x2c, 0x9a, 0x2c, 0x32, 0xf4, 0x1f, 0xbe, 0x2f, 0x99,
  0xfa, 0x98, 0xd3, 0xb4, 0xf1, 0xe7, 0x55, 0xcf, 0x06, 0xde, 0xff, 0x59,
  0x27, 0xc5, 0xba, 0xf7, 0x1a, 0xc3, 0xc2, 0x6b, 0xce, 0x10, 0xaa, 0x2d,
  0x13, 0xf2, 0xc1, 0x1a, 0x38, 0x3c, 0xa1, 0x3a, 0x35, 0x26, 0x2d, 0xb5,
  0xcb, 0xb9, 0x31, 0xb9, 0x0b, 0xef, 0x2d, 0xc2, 0xa7, 0xfe, 0x9f, 0xb8,
  0xe8, 0x19, 0xb7, 0xcb, 0xbb, 0xf4, 0xb1, 0xc0, 0xba, 0x53, 0xfc, 0x58,
  0x1d, 0xf7, 0x03, 0xd4, 0xbe, 0x03, 0x18, 0xce, 0x19, 0x81, 0x1d, 0xc7,
  0xb5, 0x26, 0xd0, 0x88, 0xd6, 0xe2, 0xda, 0xac, 0x57, 0xe4, 0x06, 0x1c,
  0x01, 0xb1, 0xa5, 0xd2, 0x2b, 0xb9, 0xcd, 0xdf, 0xc6, 0x4b, 0xd4, 0xa9,
  0xe8, 0x4a, 0xc7, 0xeb, 0xe3, 0x89, 0x53, 0xe7, 0xe9, 0xf5, 0x01, 0x11,
  0xe7, 0x30, 0x13, 0xf3, 0x29, 0x28, 0x1e, 0x11, 0xea, 0x2f, 0x4d, 0xf7,
  0x16, 0x99, 0xd5, 0x26, 0x3b, 0xd8, 0xeb, 0xef, 0xfa, 0xe1, 0x9f, 0xd4,
  0xdb, 0x1c, 0xc8, 0xd8, 0x46, 0x18, 0x22, 0x20, 0x4d, 0x45, 0x36, 0x0a,
  0x5d, 0x70, 0x78, 0x03, 0x17, 0x14, 0xda, 0xef, 0x2d, 0x40, 0x43, 0x24,
  0x12, 0x41, 0x39, 0xcc, 0x23, 0x23, 0x36, 0xe2, 0xec, 0x3c, 0x40, 0x19,
  0x0f, 0xc7, 0xc5, 0x17, 0x01, 0x98, 0xad, 0xf4, 0xe3, 0xbc, 0xb7, 0x0d,
  0x19, 0xd1, 0xd8, 0xf6, 0xfa, 0xfc, 0xda, 0x2f, 0xf6, 0x09, 0xf7, 0x1c,
  0xdf, 0xa4, 0xb8, 0x1c, 0x05, 0xa5, 0xf2, 0xf9, 0x1d, 0x1b, 0xe4, 0x0b,
  0x2c, 0xf8, 0xdb, 0x0d, 0x17, 0x5e, 0x7f, 0xfa, 0x0e, 0xf2, 0xf0, 0xe7,
  0x1a, 0xf5, 0x05, 0x02, 0x49, 0xdd, 0x25, 0xf3, 0x4a, 0xf8, 0xe1, 0xef,
  0x16, 0x00, 0xd7, 0xf1, 0x12, 0x04, 0x19, 0x0f, 0x58, 0x1b, 0x7f, 0xdc,
  0xfa, 0xf5, 0x3e, 0xeb, 0x22, 0xde, 0x02, 0xe7, 0x15, 0x0a, 0x12, 0x0c,
  0xea, 0xfc, 0xb7, 0x00, 0xb2, 0xbd, 0xc3, 0xff, 0xff, 0xfa, 0xb5, 0xe8,
  0xff, 0x2a, 0xeb, 0xdf, 0x49, 0x25, 0x2e, 0xd2, 0x0a, 0x2b, 0x1e, 0xc9,
  0x1d, 0x2a, 0xfa, 0x1f, 0x08, 0x3c, 0xf7, 0x05, 0xfc, 0x51, 0x47, 0x0f,
  0xde, 0xe6, 0xbe, 0xfb, 0xdd, 0xe2, 0xdb, 0xec, 0x14, 0xe9, 0xd0, 0x00,
  0x1c, 0xd1, 0x85, 0x07, 0xec, 0xce, 0xe1, 0xf5, 0xf4, 0xe1, 0xf4, 0x2b,
  0xf5, 0x03, 0x12, 0xfb, 0xf9, 0xfe, 0xf2, 0x27, 0xf8, 0xc8, 0xf4, 0x38,
  0xdb, 0xf4, 0x44, 0x2f, 0x3e, 0x29, 0xd7, 0xb5, 0x10, 0x16, 0xfa, 0xcb,
  0x41, 0xf5, 0x11, 0xad, 0x2d, 0x23, 0xd2, 0xce, 0xe6, 0x1a, 0x02, 0x2e,
  0xd8, 0x1e, 0x32, 0x1d, 0xd4, 0xf3, 0x18, 0x2e, 0xfa, 0xfb, 0xf6, 0x2c,
  0x37, 0x38, 0x31, 0x10, 0x1b, 0x13, 0x00, 0x2d, 0xc1, 0x9d, 0xd0, 0xf2,
  0x36, 0xdf, 0xe7, 0x1d, 0xda, 0x32, 0x17, 0x0d, 0x07, 0x3b, 0xcb, 0x16,
  0xea, 0xd7, 0x54, 0x07, 0x09, 0xf9, 0x1e, 0x17, 0xf3, 0xf8, 0x11, 0x09,
  0xb7, 0xe5, 0xb7, 0x10, 0xc1, 0xbd, 0xbf, 0x3f, 0xe4, 0xf2, 0x0f, 0x2b,
  0x0c, 0xfc, 0xed, 0x03, 0xf9, 0xe0, 0xeb, 0x32, 0xfa, 0xdd, 0xf8, 0x4c,
  0xf4, 0xe0, 0xea, 0x15, 0x13, 0x37, 0x37, 0xe1, 0x03, 0x64, 0x6a, 0x0c,
  0x32, 0x67, 0x4e, 0xe0, 0x00, 0x0a, 0x3c, 0xf3, 0x0d, 0x12, 0x00, 0xd7,
  0xe7, 0x10, 0xf9, 0xf5, 0x1c, 0x65, 0x05, 0x14, 0xe8, 0x50, 0x25, 0x14,
  0x1c, 0x0b, 0x06, 0x12, 0xfd, 0x29, 0x27, 0x03, 0xff, 0x99, 0x81, 0xdd,
  0x1e, 0x24, 0xfc, 0x13, 0x05, 0xf2, 0xdc, 0xe3, 0xa7, 0xe8, 0xe3, 0xfd,
  0x02, 0x00, 0x2b, 0x19, 0xe8, 0x41, 0x3a, 0xe2, 0x26, 0xfd, 0x13, 0xec,
  0xb0, 0xbe, 0xbe, 0x0b, 0x20, 0x0f, 0xe2, 0x0b, 0x0c, 0x3e, 0x10, 0x0a,
  0xf0, 0x0b, 0xdc, 0xe2, 0x02, 0x2b, 0x45, 0xf6, 0x2e, 0x50, 0x77, 0x13,
  0x00, 0x3e, 0x66, 0x08, 0xe9, 0x14, 0x29, 0x0d, 0xb0, 0xd9, 0xed, 0x0b,
  0xdc, 0xb8, 0xfe, 0x48, 0x01, 0xc5, 0x08, 0x07, 0x05, 0xf2, 0x3f, 0x0f,
  0x08, 0xb3, 0xc6, 0x22, 0x44, 0x65, 0x4e, 0x2a, 0x24, 0x1d, 0xf9, 0x1c,
  0x0a, 0xfb, 0x11, 0xe6, 0xf1, 0x3a, 0x58, 0xdc, 0xf2, 0x41, 0xda, 0x08,
  0x10, 0x0f, 0x05, 0x09, 0x00, 0x13, 0x01, 0x18, 0xed, 0x14, 0xf4, 0xde,
  0x17, 0x2b, 0x22, 0xf3, 0x10, 0x0d, 0xe1, 0xf6, 0xdb, 0xee, 0x2a, 0x2d,
  0xe9, 0xc4, 0x1e, 0x4c, 0xd6, 0x07, 0x05, 0x1c, 0xdd, 0x01, 0x33, 0x0e,
  0x1e, 0xfe, 0x15, 0x05, 0x1e, 0xf9, 0xd7, 0xe9, 0x2f, 0xfc, 0xd4, 0x1c,
  0x3b, 0x3a, 0xf5, 0xf3, 0x1e, 0x3e, 0x1d, 0xf9, 0x30, 0xf9, 0x04, 0x34,
  0xdf, 0xa4, 0xc5, 0xf1, 0x19, 0xe7, 0xdf, 0x2c, 0xdf, 0x49, 0x19, 0xf3,
  0xff, 0x43, 0xe3, 0x05, 0x0c, 0xe3, 0x4b, 0x0d, 0xff, 0x08, 0x16, 0xfa,
  0xd2, 0xfd, 0x0e, 0xe4, 0xbc, 0xc6, 0xcf, 0x23, 0xc1, 0xd5, 0xc2, 0x1c,
  0xe4, 0x04, 0x0c, 0x1d, 0xf1, 0x10, 0xdf, 0x01, 0xf5, 0xf8, 0x0c, 0x30,
  0xcc, 0xe7, 0xf7, 0x21, 0x1b, 0xc0, 0xf2, 0x08, 0x00, 0x2a, 0x2f, 0xe1,
  0x0a, 0x70, 0x69, 0x07, 0xfc, 0x48, 0x4e, 0xf3, 0xea, 0x20, 0x15, 0xf6,
  0x0a, 0x18, 0x0e, 0xe4, 0xe0, 0x1a, 0xe7, 0xe6, 0xf6, 0x56, 0x0c, 0xf0,
  0xfe, 0x41, 0x3c, 0x01, 0xf6, 0x09, 0x05, 0xf5, 0xf2, 0x29, 0x18, 0x17,
  0x09, 0x92, 0x81, 0x01, 0xff, 0x0d, 0xf0, 0xf9, 0x11, 0x17, 0xf8, 0x0a,
  0xb2, 0x10, 0xd4, 0x11, 0xf7, 0xf7, 0x1a, 0x13, 0xf7, 0x0d, 0x22, 0xf5,
  0x2a, 0x12, 0xe2, 0x0d, 0xc0, 0xe2, 0xb8, 0x1f, 0x05, 0x1a, 0x00, 0x14,
  0xfc, 0x2f, 0x12, 0x0f, 0xef, 0xfd, 0xf5, 0x00, 0x0a, 0x2c, 0x2a, 0xfa,
  0x20, 0x24, 0x6f, 0xed, 0xf8, 0x34, 0x4a, 0xef, 0x07, 0xef, 0x2b, 0x10,
  0xab, 0xe6, 0x09, 0x07, 0xf1, 0xcc, 0x0b, 0x15, 0xeb, 0xd4, 0xf1, 0xf4,
  0x28, 0xf0, 0x16, 0x20, 0xf7, 0xac, 0xc9, 0x1b, 0x28, 0x4f, 0x3a, 0x10,
  0x2f, 0x13, 0x08, 0x20, 0xfd, 0xfe, 0x19, 0xef, 0xef, 0x3f, 0x52, 0xf3,
  0x03, 0x4c, 0xc4, 0x0f, 0x05, 0x0d, 0xfd, 0xf0, 0xe9, 0xf5, 0xf8, 0x29,
  0x13, 0x15, 0xd4, 0xf0, 0x33, 0x21, 0x21, 0x07, 0x02, 0x13, 0xe7, 0xf3,
  0xe4, 0xf6, 0x20, 0x2f, 0x0a, 0xd1, 0x1b, 0x40, 0xee, 0xf8, 0xf1, 0x31,
  0xe3, 0xe0, 0x24, 0x19, 0x22, 0xfd, 0x0a, 0xe5, 0x2a, 0xf1, 0xbf, 0x10,
  0x4a, 0xfc, 0xf1, 0x09, 0x34, 0x2c, 0x15, 0x04, 0xd6, 0xff, 0xfd, 0xce,
  0x02, 0x32, 0xe3, 0x8e, 0xc0, 0xaa, 0x28, 0xc2, 0xc6, 0xe7, 0x23, 0x9c,
  0xe2, 0x41, 0x4a, 0xd2, 0xe7, 0xff, 0xce, 0xc5, 0xd2, 0xab, 0xe5, 0x08,
  0xc1, 0x1f, 0xdf, 0xb3, 0xda, 0xb0, 0x59, 0xd4, 0x55, 0x30, 0xd0, 0xf9,
  0xad, 0xd3, 0x19, 0x97, 0xe7, 0x1e, 0xc8, 0xd6, 0x38, 0xe8, 0x19, 0x17,
  0xca, 0xef, 0xfb, 0x22, 0xed, 0x34, 0x9c, 0xaa, 0xcb, 0xe1, 0x17, 0xc8,
  0xb4, 0x0c, 0xde, 0x9d, 0x02, 0x9f, 0xba, 0xbd, 0xf9, 0x43, 0x0d, 0xb6,
  0x2e, 0x14, 0xdd, 0xf2, 0xa5, 0x9e, 0x30, 0xe4, 0x1f, 0x42, 0x00, 0x15,
  0x05, 0xf1, 0xbd, 0xf0, 0xc4, 0xb9, 0xfb, 0xe8, 0xa6, 0xab, 0xfa, 0x1a,
  0xab, 0xc4, 0x3c, 0x87, 0xb3, 0x2d, 0x04, 0x9a, 0x99, 0xc1, 0xdc, 0xfc,
  0xb3, 0x11, 0xae, 0xb5, 0x42, 0xa6, 0x8e, 0xab, 0x33, 0xbf, 0xcc, 0xd2,
  0xf9, 0xff, 0xc2, 0xc2, 0xe1, 0x3e, 0xae, 0xd1, 0xde, 0x04, 0x4e, 0xd8,
  0xc0, 0xef, 0xa9, 0x96, 0xb6, 0x81, 0x9b, 0x39, 0x08, 0xc1, 0x23, 0x2f,
  0x58, 0xce, 0x2c, 0xd5, 0xbf, 0x37, 0x1e, 0x44, 0xeb, 0x1c, 0xde, 0x2a,
  0xd6, 0xf8, 0x12, 0x51, 0xb6, 0x02, 0xd4, 0xf9, 0x8b, 0x9a, 0xb7, 0x38,
  0x28, 0x38, 0x36, 0xbe, 0x19, 0xd9, 0xea, 0x07, 0x4a, 0xf8, 0xf8, 0x5f,
  0x92, 0x09, 0xf8, 0xbf, 0xd8, 0xa7, 0x39, 0x1b, 0xe3, 0xca, 0xeb, 0xb4,
  0x2d, 0xef, 0x4d, 0x3b, 0xdf, 0xaf, 0x3d, 0xa7, 0x8c, 0x54, 0xd2, 0xbe,
  0x32, 0x53, 0xe2, 0x36, 0xc8, 0xe6, 0x0e, 0x2a, 0xbb, 0xfe, 0xbe, 0x30,
  0xe6, 0xb2, 0x9f, 0x9f, 0x2d, 0x8b, 0xae, 0xee, 0x01, 0xc6, 0x3f, 0x38,
  0x1e, 0xa5, 0xca, 0xc4, 0x83, 0x92, 0x97, 0xc0, 0xbc, 0xbc, 0x3a, 0xf9,
  0xc4, 0xf3, 0xe5, 0xd2, 0x90, 0xf0, 0xb3, 0x94, 0x21, 0x92, 0xfc, 0xa2,
  0xe2, 0xea, 0xef, 0x04, 0xe9, 0x33, 0x1b, 0x1a, 0x47, 0x60, 0x2f, 0xf5,
  0xec, 0x38, 0x46, 0xfc, 0x01, 0xb2, 0xd4, 0xf7, 0x2e, 0xc4, 0x12, 0x21,
  0x03, 0xfd, 0x81, 0x17, 0x06, 0x21, 0xea, 0xf1, 0x14, 0x0b, 0x24, 0x1a,
  0x5d, 0x4f, 0x56, 0x05, 0x39, 0x4c, 0x54, 0xe4, 0x04, 0x00, 0xfb, 0xf4,
  0x1b, 0x31, 0x2b, 0x04, 0xfe, 0x1c, 0x2a, 0xcc, 0x48, 0x26, 0x12, 0xf4,
  0x1e, 0x3f, 0x44, 0x04, 0xf3, 0xd5, 0xc3, 0xf7, 0xfa, 0xbc, 0x8d, 0xd9,
  0x08, 0xbd, 0xa8, 0xfb, 0xf6, 0xc7, 0xed, 0x17, 0x08, 0xfa, 0xf9, 0x31,
  0xfb, 0x1e, 0x0f, 0x24, 0x0b, 0xb1, 0xd4, 0x17, 0xfd, 0xb0, 0xf3, 0x13,
  0x1b, 0x11, 0xfa, 0x05, 0x1f, 0x05, 0xc5, 0x20, 0x2d, 0x70, 0x75, 0x17,
  0x0a, 0x0c, 0x01, 0xfd, 0x03, 0x03, 0x23, 0xed, 0x56, 0x1c, 0x2e, 0xff,
  0x0b, 0xff, 0xe1, 0x13, 0x22, 0xe0, 0xee, 0x11, 0xeb, 0x24, 0x07, 0x17,
  0x4d, 0x59, 0x68, 0xe3, 0xfd, 0x0c, 0x34, 0x11, 0x18, 0xfd, 0xde, 0x02,
  0xfd, 0x0f, 0x27, 0xf6, 0xe5, 0x05, 0xc3, 0x14, 0xe3, 0xc0, 0x9f, 0x12,
  0x02, 0xca, 0xc1, 0xfb, 0x22, 0xf8, 0x10, 0xdd, 0x40, 0x36, 0x1e, 0xf4,
  0x1d, 0x5a, 0x12, 0xbe, 0x10, 0x4c, 0x1a, 0x15, 0xef, 0x49, 0x0a, 0xe4,
  0x10, 0x74, 0x62, 0xdb, 0xf6, 0xad, 0xee, 0xf2, 0xf6, 0xe6, 0x11, 0xed,
  0x18, 0x06, 0x0a, 0xf9, 0x0a, 0xe9, 0x9d, 0x2e, 0x05, 0xc8, 0x39, 0xf9,
  0x08, 0xf7, 0xec, 0x1f, 0xfd, 0x19, 0x0c, 0x00, 0x00, 0xde, 0x0f, 0x18,
  0xd2, 0xcb, 0xff, 0x24, 0xfd, 0xf6, 0x32, 0x25, 0x46, 0x3b, 0xcd, 0xf2,
  0x0c, 0x36, 0x1a, 0xbf, 0x2c, 0x0d, 0xef, 0xca, 0x49, 0x20, 0xfb, 0xd6,
  0x10, 0xf7, 0x15, 0x26, 0xe8, 0x39, 0x52, 0x0b, 0xcb, 0x02, 0x11, 0x18,
  0xff, 0xd0, 0xf1, 0x15, 0x2d, 0x10, 0x18, 0xfd, 0x18, 0x0e, 0x02, 0x36,
  0xce, 0xb4, 0xbd, 0xf9, 0x0b, 0xdc, 0xe9, 0x2f, 0xf4, 0x41, 0x14, 0x03,
  0xe3, 0x29, 0xd5, 0x17, 0xf7, 0xf9, 0x48, 0x1a, 0x27, 0xe9, 0x1b, 0xf3,
  0xe2, 0xe8, 0x1e, 0x04, 0xcd, 0xe0, 0xda, 0x23, 0xda, 0xce, 0xa8, 0x15,
  0xe9, 0x06, 0xf7, 0x11, 0x00, 0xec, 0xe6, 0xfd, 0xf8, 0xe9, 0x09, 0x41,
  0xf8, 0xec, 0xe1, 0x22, 0x0d, 0xc7, 0xe0, 0x11, 0xff, 0x2e, 0x3f, 0xf0,
  0x0c, 0x51, 0x5c, 0x05, 0x19, 0x62, 0x43, 0x0a, 0xfc, 0x0e, 0x16, 0xef,
  0x0f, 0x03, 0xe6, 0xea, 0xec, 0xfd, 0xdf, 0x09, 0x0f, 0x4b, 0x18, 0x04,
  0xe7, 0x4c, 0x1e, 0x04, 0x10, 0xfb, 0xfa, 0xf5, 0xfe, 0x02, 0x42, 0xfb,
  0xe1, 0x95, 0x81, 0xf2, 0xee, 0x0d, 0xf5, 0xf7, 0xfa, 0xe5, 0xf1, 0x03,
  0xbf, 0xf4, 0xe7, 0x1a, 0xff, 0x11, 0x08, 0xf1, 0xe4, 0x12, 0x36, 0xfe,
  0x0f, 0x02, 0xe9, 0x05, 0xd1, 0xbe, 0xa1, 0x07, 0x13, 0x16, 0xf5, 0x17,
  0x17, 0x36, 0x13, 0x10, 0x07, 0xea, 0xdf, 0xf6, 0x1a, 0x2a, 0x2d, 0xec,
  0x2b, 0x38, 0x52, 0x02, 0xf7, 0x45, 0x4c, 0x0f, 0xfc, 0xfd, 0x08, 0x08,
  0xb1, 0xef, 0x12, 0x08, 0xdc, 0xcd, 0x0a, 0x16, 0x0b, 0xe0, 0xf2, 0xf1,
  0x1f, 0xd9, 0x39, 0x1c, 0x20, 0xbb, 0xc6, 0x12, 0x14, 0x4a, 0x3c, 0x30,
  0x37, 0x2d, 0x09, 0x2a, 0xf1, 0xee, 0xfe, 0xfd, 0xe9, 0x3a, 0x62, 0xda,
  0xfa, 0x35, 0xe9, 0x0c, 0x1b, 0xf3, 0xfa, 0xfe, 0xfe, 0xfc, 0x1a, 0x07,
  0xf8, 0x20, 0xe4, 0xeb, 0x3c, 0x1f, 0x21, 0x14, 0xf6, 0x20, 0xd3, 0x12,
  0xc6, 0xca, 0x30, 0x16, 0xe5, 0xee, 0x0c, 0x47, 0xe0, 0xf2, 0xec, 0x2f,
  0xc9, 0xe1, 0x2c, 0x22, 0x1a, 0x22, 0x28, 0x04, 0x18, 0xf4, 0xbb, 0xf6,
  0x2d, 0x0a, 0xe0, 0x06, 0x20, 0x31, 0x10, 0x0a, 0x28, 0x11, 0x2d, 0x1f,
  0x30, 0x06, 0x03, 0x0e, 0xb6, 0xa4, 0xba, 0x00, 0x0e, 0xfd, 0xd9, 0x17,
  0xe9, 0x4d, 0x0e, 0x0b, 0xdc, 0x51, 0xcc, 0xf3, 0xf5, 0xea, 0x61, 0x17,
  0x21, 0x09, 0x1e, 0x06, 0xe7, 0xe3, 0xff, 0xea, 0xcc, 0xcb, 0xe1, 0x1d,
  0xdd, 0xd5, 0xc1, 0x39, 0xe7, 0x25, 0x0d, 0x1a, 0x06, 0x10, 0xf0, 0x11,
  0x06, 0xe5, 0xe6, 0x3c, 0xee, 0xf1, 0xd5, 0x1a, 0xfa, 0xe1, 0xec, 0x19,
  0x06, 0x3e, 0x18, 0x08, 0x0f, 0x6f, 0x50, 0x21, 0x08, 0x54, 0x35, 0xe6,
  0xe7, 0x30, 0x0f, 0xe6, 0x00, 0x0b, 0xf1, 0xfc, 0xe6, 0xf4, 0x12, 0x06,
  0x0e, 0x4b, 0x0e, 0x02, 0xf6, 0x41, 0x26, 0x00, 0xf7, 0xf0, 0x2e, 0xf1,
  0xdd, 0x10, 0x46, 0x06, 0xf8, 0x8f, 0x81, 0xff, 0xf9, 0x28, 0xfc, 0x07,
  0xfe, 0xf5, 0xff, 0xf0, 0xc6, 0x04, 0xdd, 0x13, 0x13, 0x01, 0x09, 0xf8,
  0xf3, 0x27, 0x3c, 0xfb, 0x0d, 0x1d, 0xef, 0xf8, 0xba, 0xdf, 0xc5, 0x05,
  0x12, 0x28, 0xf7, 0x02, 0x19, 0x1e, 0x28, 0xff, 0xe9, 0xea, 0xe1, 0xff,
  0x31, 0x15, 0x35, 0xfe, 0x41, 0x40, 0x5b, 0xed, 0x08, 0x3c, 0x55, 0xfd,
  0x10, 0x12, 0x1a, 0x10, 0xda, 0xde, 0x0d, 0x0f, 0xf9, 0xc5, 0xf4, 0x17,
  0xf8, 0xee, 0x0f, 0xdc, 0x1f, 0xf3, 0x1d, 0x1e, 0x13, 0xb4, 0xd9, 0x28,
  0x39, 0x45, 0x4a, 0x25, 0x14, 0x31, 0x0a, 0x13, 0x06, 0x17, 0x15, 0x09,
  0xe2, 0x3c, 0x75, 0xfb, 0x04, 0x29, 0xcb, 0x05, 0x12, 0xfa, 0x07, 0xfb,
  0xe8, 0xf3, 0xed, 0xfd, 0x1c, 0x15, 0xf7, 0xfe, 0x19, 0x35, 0x21, 0xf3,
  0x1d, 0x0f, 0xce, 0xf7, 0xcf, 0xf0, 0x1d, 0x2c, 0xec, 0xdd, 0x06, 0x36,
  0xda, 0xe3, 0x00, 0x19, 0xe0, 0xff, 0x33, 0x08, 0x1c, 0x26, 0x0c, 0xef,
  0x39, 0xef, 0xc4, 0xe9, 0x4d, 0xf9, 0xdd, 0x07, 0x32, 0x0f, 0x07, 0x01,
  0x0f, 0x3b, 0xf8, 0x54, 0xa7, 0xbe, 0x25, 0xa1, 0xbf, 0x94, 0xa8, 0x0e,
  0x1b, 0xc7, 0x9f, 0xa2, 0x5c, 0x63, 0x04, 0xae, 0xf2, 0x52, 0xcb, 0xdc,
  0x3d, 0xc8, 0x96, 0xce, 0x4c, 0xa3, 0x0c, 0xa2, 0xe8, 0xa1, 0xef, 0xbb,
  0x37, 0xac, 0x32, 0x8c, 0x04, 0xcf, 0xf8, 0x3e, 0x59, 0xd9, 0x03, 0x24,
  0x56, 0x3d, 0xe2, 0xb7, 0x8f, 0x91, 0x3f, 0xb7, 0xa8, 0xc3, 0xaf, 0x1b,
  0x8e, 0xaf, 0x85, 0x9f, 0x2d, 0x29, 0x07, 0x03, 0xd7, 0xdf, 0xbe, 0x55,
  0x2f, 0xaa, 0x29, 0xa5, 0x9a, 0x20, 0x84, 0xdb, 0x21, 0x01, 0xa5, 0xa1,
  0x9c, 0xcb, 0x8b, 0xed, 0xf1, 0xb2, 0xba, 0x25, 0xb3, 0x34, 0x3e, 0x02,
  0x06, 0xf0, 0x4a, 0xd2, 0x25, 0xec, 0x34, 0xcf, 0xa8, 0x96, 0x5f, 0xe5,
  0xb6, 0xbf, 0x3a, 0x46, 0x53, 0x39, 0xfb, 0xd0, 0xe7, 0xd0, 0x30, 0x92,
  0x48, 0x0b, 0xc4, 0x20, 0x95, 0xe2, 0xc1, 0x04, 0xbb, 0xed, 0xb2, 0xcf,
  0x9e, 0x4e, 0x4d, 0x3c, 0x27, 0xb1, 0xd2, 0xa8, 0x2c, 0x12, 0xd4, 0x3c,
  0x09, 0x89, 0x96, 0x8f, 0x10, 0x34, 0xee, 0xb6, 0x23, 0x82, 0x98, 0xaa,
  0x4e, 0xec, 0xee, 0xe6, 0x2d, 0xb6, 0x45, 0xd6, 0xae, 0x25, 0xef, 0xe3,
  0xc5, 0xaa, 0x49, 0xc5, 0xf9, 0x09, 0xe8, 0xcc, 0xa8, 0x9a, 0xef, 0xaf,
  0x8e, 0xc9, 0x38, 0x83, 0x8c, 0x49, 0x30, 0xe5, 0x4e, 0xe6, 0x3c, 0x4a,
  0xf3, 0x0d, 0x51, 0x20, 0xd9, 0x9c, 0xb5, 0x42, 0xe8, 0x86, 0x2c, 0xb4,
  0x2a, 0x2c, 0xfd, 0xc6, 0x0e, 0xb0, 0xec, 0x9d, 0x48, 0xe3, 0x81, 0x30,
  0x33, 0x04, 0xeb, 0x2d, 0x2e, 0x47, 0xa8, 0x1e, 0x31, 0x92, 0x10, 0xac,
  0x95, 0x06, 0x01, 0x3d, 0x43, 0xa8, 0xef, 0xf0, 0xaa, 0x23, 0xe0, 0xbd,
  0x0a, 0xb9, 0xc2, 0xb1, 0x89, 0x40, 0xd5, 0x1d, 0x1a, 0xff, 0x99, 0xf0,
  0x2b, 0x81, 0xc7, 0x0a, 0x9d, 0x0c, 0x0f, 0xb0, 0x50, 0x1b, 0xee, 0x2f,
  0xde, 0xe3, 0xb6, 0xd2, 0xb4, 0xa6, 0x1c, 0x35, 0x89, 0xec, 0x39, 0xe6,
  0x0a, 0xe3, 0x16, 0x09, 0xba, 0x43, 0x9f, 0xfe, 0xff, 0x30, 0xef, 0xbb,
  0xc3, 0xbb, 0x10, 0xae, 0x56, 0x3b, 0x2c, 0xe4, 0xc6, 0x39, 0xf9, 0xe9,
  0x82, 0x4d, 0xbf, 0xa4, 0xbb, 0xe8, 0xd8, 0x5a, 0xf6, 0x38, 0x56, 0xeb,
  0xf1, 0x4e, 0xec, 0x2d, 0x44, 0x2d, 0x26, 0xff, 0x2f, 0xc2, 0x1b, 0x92,
  0xba, 0x25, 0xf9, 0xdc, 0x1b, 0xef, 0x05, 0x4e, 0xed, 0x97, 0xf7, 0xdb,
  0x18, 0x51, 0xf3, 0x07, 0xbd, 0x02, 0xb9, 0xdb, 0xb6, 0x28, 0x39, 0xad,
  0xd2, 0xa6, 0xdf, 0xa9, 0x1f, 0xa2, 0x0b, 0x45, 0x4c, 0x09, 0x25, 0xa7,
  0xb4, 0xab, 0xb0, 0x22, 0xeb, 0xb1, 0xf0, 0xe1, 0xd1, 0x38, 0x1a, 0xae,
  0x25, 0xba, 0x31, 0xa2, 0x02, 0xb1, 0x3a, 0x3e, 0xa3, 0x1e, 0xee, 0xa4,
  0xa4, 0x49, 0xb7, 0x45, 0x3a, 0xcd, 0xe8, 0x98, 0x57, 0x81, 0x0d, 0xf0,
  0xc4, 0x2f, 0x0e, 0xd4, 0xff, 0xe6, 0xd9, 0x30, 0xad, 0x42, 0x2b, 0xb6,
  0xa7, 0xb6, 0x57, 0x2d, 0xb7, 0xfd, 0x1e, 0x0f, 0xdc, 0x59, 0x1c, 0x47,
  0x61, 0xf2, 0xdc, 0xd2, 0xd6, 0xe6, 0x35, 0x25, 0x16, 0xca, 0xb7, 0xff,
  0xbb, 0x38, 0x24, 0xf0, 0x3b, 0xe8, 0xdd, 0xc5, 0xd6, 0xa7, 0xad, 0xcd,
  0x33, 0xf0, 0x40, 0xb9, 0xf9, 0x26, 0xb1, 0x19, 0x93, 0x3c, 0xcb, 0xab,
  0x36, 0x56, 0x22, 0xc3, 0xa4, 0xdf, 0xc6, 0xc7, 0xd3, 0xfc, 0x28, 0xe2,
  0x24, 0xe2, 0xd2, 0xce, 0xee, 0x08, 0xd8, 0x01, 0xaf, 0x55, 0x3d, 0x4a,
  0x47, 0xad, 0x91, 0x19, 0xad, 0xbe, 0x3b, 0xb0, 0xbf, 0x0a, 0xad, 0xd7,
  0x32, 0xea, 0xa4, 0x5a, 0x9e, 0xde, 0xa6, 0xd5, 0xe1, 0xd3, 0xe5, 0xf9,
  0x11, 0x93, 0x3d, 0xc8, 0xd5, 0x35, 0x9a, 0x0d, 0xe2, 0xfe, 0xec, 0x08,
  0xdf, 0x2c, 0xfd, 0xf7, 0x46, 0x4e, 0x48, 0x29, 0xf4, 0x49, 0x33, 0xeb,
  0x04, 0xb6, 0xe9, 0x19, 0x34, 0xba, 0x0f, 0x0e, 0xfa, 0x1e, 0x9e, 0xf8,
  0xf4, 0xfa, 0xc6, 0xfa, 0x07, 0x1c, 0x0b, 0x1a, 0x56, 0x33, 0x34, 0xfe,
  0x47, 0x41, 0x51, 0xf4, 0x08, 0x10, 0x04, 0xe5, 0x16, 0x25, 0x28, 0x0a,
  0xf9, 0x18, 0x0f, 0xd0, 0x35, 0x3e, 0x13, 0xe9, 0x21, 0x59, 0x37, 0x0a,
  0x18, 0xc5, 0xc2, 0x15, 0x1a, 0xa0, 0xb0, 0xe7, 0x00, 0xa9, 0xb9, 0x21,
  0xfe, 0xba, 0xac, 0xff, 0x0d, 0xe2, 0x03, 0x2b, 0x0a, 0xf7, 0xf3, 0x0e,
  0xe3, 0xbb, 0xdb, 0x28, 0x19, 0x98, 0xd7, 0x02, 0xf3, 0x06, 0xfb, 0x19,
  0x16, 0xdd, 0xc8, 0x0e, 0x21, 0x7a, 0x7f, 0x05, 0xf6, 0xf8, 0x15, 0xed,
  0x22, 0x04, 0x26, 0xe9, 0x53, 0xf8, 0x07, 0xe0, 0x22, 0xea, 0xd0, 0xf1,
  0x26, 0xdc, 0xd9, 0x03, 0x0f, 0x1c, 0xff, 0x17, 0x66, 0x30, 0x54, 0xe6,
  0x01, 0xe0, 0x03, 0xf0, 0x01, 0xd5, 0xfa, 0x05, 0x04, 0xf2, 0x26, 0x02,
  0xf2, 0xed, 0xc6, 0x11, 0xe6, 0xd0, 0xa2, 0x08, 0x02, 0xbc, 0xae, 0x0d,
  0x00, 0xe9, 0xde, 0xd5, 0x33, 0x37, 0x2b, 0xe8, 0x1d, 0x52, 0x1a, 0xdb,
  0xfd, 0x25, 0x00, 0x14, 0x02, 0x17, 0xeb, 0xf4, 0x13, 0x62, 0x3f, 0xe1,
  0xce, 0xbf, 0xdb, 0xf4, 0xf1, 0xe8, 0xfe, 0x02, 0x0a, 0x04, 0xed, 0x1a,
  0xfa, 0xd8, 0xac, 0x28, 0x10, 0xd4, 0x2b, 0x05, 0xfe, 0xf8, 0xef, 0x0d,
  0x0f, 0xfc, 0x05, 0x01, 0x1f, 0xed, 0xf0, 0x22, 0xee, 0xc5, 0xde, 0x03,
  0xf4, 0xd2, 0x19, 0x13, 0x31, 0x1d, 0xea, 0xdf, 0x2b, 0x3f, 0xf6, 0xc4,
  0x1c, 0x27, 0xf7, 0xe0, 0x15, 0x15, 0xee, 0xff, 0xe5, 0x18, 0xf5, 0x29,
  0xdc, 0x1a, 0x5a, 0x21, 0xe0, 0x0b, 0x24, 0x17, 0xdd, 0xdd, 0x02, 0x1b,
  0x30, 0x2f, 0x07, 0x21, 0x3c, 0xed, 0xe5, 0x0e, 0xeb, 0xd3, 0xc9, 0xee,
  0x30, 0xe6, 0xe1, 0x1e, 0xeb, 0x4a, 0x19, 0x14, 0xec, 0xfb, 0xde, 0x17,
  0x09, 0xf7, 0x28, 0xff, 0x2f, 0xe1, 0x42, 0xc7, 0xb0, 0xfe, 0xd7, 0xee,
  0xcd, 0xf8, 0xd1, 0x1b, 0xad, 0xe4, 0x8b, 0x20, 0xd8, 0x02, 0x26, 0x07,
  0x0f, 0xd9, 0xcc, 0x00, 0x1e, 0xd9, 0xdb, 0x1c, 0xec, 0xf5, 0xfd, 0xfa,
  0x03, 0xdf, 0xf2, 0x29, 0x27, 0xf4, 0xd5, 0xd2, 0x28, 0x3e, 0x41, 0x16,
  0x18, 0x1e, 0x29, 0xd5, 0x06, 0xe8, 0xba, 0xe6, 0xf5, 0xf3, 0xd0, 0xf6,
  0xee, 0xf2, 0xd7, 0x0c, 0xf7, 0x1c, 0x1f, 0x26, 0xf8, 0x1c, 0xfa, 0x0f,
  0xf6, 0xff, 0x27, 0xf4, 0x03, 0x0d, 0x15, 0xf5, 0xfe, 0xe2, 0xbc, 0x02,
  0x08, 0x0d, 0x21, 0xeb, 0xf9, 0xf1, 0xc9, 0xf5, 0xe0, 0xe7, 0xb7, 0xdb,
  0x09, 0xe5, 0x0a, 0xcc, 0xe6, 0xd3, 0xe4, 0xe0, 0x43, 0xe5, 0xf8, 0x03,
  0x02, 0xc7, 0xd0, 0x0b, 0x3d, 0x0b, 0x08, 0xf2, 0x1a, 0xdb, 0xf6, 0xf2,
  0x15, 0xd6, 0xc9, 0xfe, 0x38, 0xdf, 0x34, 0xe6, 0x57, 0x32, 0x7f, 0xe8,
  0x06, 0xe1, 0x38, 0xee, 0xf1, 0x0e, 0x27, 0x00, 0xc3, 0xb4, 0xf3, 0x0b,
  0x03, 0xc6, 0x24, 0x0e, 0x20, 0xb6, 0xe4, 0xfc, 0xfd, 0xeb, 0x1c, 0xfe,
  0x28, 0xc4, 0xa7, 0x19, 0x27, 0x3b, 0x1d, 0x3d, 0x41, 0x07, 0xcc, 0x19,
  0x03, 0xf1, 0x08, 0x0d, 0xe2, 0x36, 0x51, 0xe1, 0xf4, 0x2d, 0xdb, 0x16,
  0x02, 0xf9, 0x12, 0x0e, 0xea, 0x03, 0x13, 0x11, 0x26, 0x09, 0xdc, 0x11,
  0x39, 0x3b, 0x1b, 0x14, 0x2c, 0x32, 0xdc, 0x24, 0xe4, 0xcf, 0x01, 0x17,
  0x0d, 0xd0, 0xfe, 0x25, 0xe1, 0xce, 0xcb, 0x09, 0xb8, 0xe1, 0x1c, 0x1a,
  0x2c, 0x01, 0x05, 0x08, 0x30, 0x01, 0xb0, 0xfb, 0x2c, 0x0d, 0xd8, 0x12,
  0x2f, 0x07, 0xe3, 0xe3, 0xd3, 0x06, 0xe8, 0x12, 0x06, 0x2d, 0x24, 0xfa,
  0x3f, 0x68, 0x4b, 0x09, 0x03, 0x32, 0x3d, 0xd5, 0x28, 0xaa, 0x02, 0x15,
  0x07, 0xea, 0x3c, 0xfa, 0x15, 0x23, 0xa4, 0x11, 0x00, 0x25, 0xd0, 0x2b,
  0x1a, 0x06, 0x1b, 0x21, 0x3b, 0x4a, 0x46, 0xf2, 0x41, 0x4d, 0x54, 0xfa,
  0x3a, 0x0f, 0xf6, 0xea, 0x24, 0x0f, 0x29, 0x11, 0x12, 0x39, 0x11, 0xb5,
  0x4f, 0x2b, 0x33, 0xf3, 0x18, 0x3c, 0x26, 0x0b, 0x1b, 0xc3, 0xeb, 0x05,
  0x05, 0xad, 0x85, 0x04, 0xe3, 0x94, 0xba, 0x01, 0x00, 0xcb, 0xef, 0x1e,
  0x15, 0xdc, 0x1f, 0x41, 0x0b, 0x1c, 0x14, 0x24, 0xfd, 0xa7, 0xed, 0x17,
  0x25, 0xaa, 0xf1, 0x12, 0x03, 0x1a, 0xf6, 0x0c, 0x0e, 0xeb, 0xde, 0xfd,
  0x1e, 0x77, 0x7c, 0x23, 0x0a, 0x0d, 0x22, 0x2b, 0x30, 0xfc, 0x18, 0xfd,
  0x6d, 0x29, 0x06, 0x06, 0x29, 0xed, 0x00, 0x10, 0x36, 0xd0, 0xb9, 0x19,
  0xe0, 0xfc, 0x20, 0x1d, 0x60, 0x3e, 0x7f, 0xe5, 0x14, 0xe7, 0x28, 0xfd,
  0x18, 0xdd, 0xeb, 0xe2, 0xf9, 0x01, 0x19, 0x0d, 0xfd, 0xf6, 0xaf, 0x1f,
  0xc9, 0xc3, 0x9a, 0x0d, 0xf1, 0xd4, 0xd7, 0x03, 0x0c, 0x07, 0xfe, 0xcf,
  0x61, 0x49, 0xfe, 0xfa, 0x4e, 0x58, 0x17, 0xf5, 0x2a, 0x40, 0x07, 0xfb,
  0xf8, 0x45, 0xd6, 0x14, 0xf7, 0x64, 0x53, 0xfd, 0xc4, 0xbf, 0xde, 0xdd,
  0xe3, 0xdf, 0x11, 0xf6, 0x2c, 0xe6, 0xf6, 0xf7, 0x37, 0xe5, 0x8e, 0x29,
  0xf8, 0xd0, 0x51, 0x12, 0x1e, 0x29, 0x06, 0x26, 0x28, 0x0b, 0x16, 0x02,
  0xf8, 0x0e, 0x10, 0x22, 0xc4, 0xd1, 0x00, 0xfe, 0x17, 0xfa, 0x4c, 0x10,
  0x47, 0x1a, 0xbe, 0xe3, 0x00, 0x4b, 0xf5, 0xcd, 0x12, 0x30, 0x31, 0xcc,
  0x39, 0xff, 0xd7, 0xe7, 0x0a, 0x11, 0x09, 0x01, 0xcb, 0x31, 0x63, 0x17,
  0xe9, 0x2c, 0x46, 0x00, 0xeb, 0xcf, 0x02, 0x30, 0xb0, 0xfc, 0xd4, 0xec,
  0xbd, 0x27, 0x48, 0x35, 0xd9, 0x43, 0xc1, 0x22, 0xb1, 0xb8, 0x2b, 0xde,
  0xc7, 0xc3, 0x48, 0xf1, 0x2b, 0xb0, 0xd3, 0x1f, 0xdc, 0xeb, 0xf0, 0xdd,
  0xe5, 0xbe, 0x9f, 0xcd, 0x45, 0x03, 0xc8, 0xb6, 0xd9, 0x3a, 0xd4, 0xdb,
  0x1b, 0xda, 0x2f, 0xe1, 0xa5, 0x2b, 0x4c, 0xec, 0xb0, 0xc4, 0xfd, 0xd8,
  0x9e, 0x09, 0x25, 0xaf, 0xca, 0xbd, 0xbf, 0x25, 0x1c, 0x1d, 0xf7, 0x04,
  0x2f, 0x3f, 0xee, 0xa5, 0xc3, 0x39, 0xb2, 0xec, 0x21, 0x0d, 0xba, 0x3a,
  0x3f, 0xd3, 0xd6, 0xb7, 0xe6, 0xe2, 0x2d, 0x3d, 0xdb, 0x37, 0xd9, 0x0a,
  0xa5, 0xc6, 0x34, 0x11, 0xfc, 0x9c, 0x8e, 0xed, 0xef, 0xa6, 0xbc, 0x17,
  0xb6, 0x03, 0xf3, 0xdb, 0x8d, 0x00, 0xc1, 0xe1, 0x9c, 0x41, 0xdb, 0x3d,
  0xdb, 0x8d, 0xc5, 0xf5, 0x81, 0xed, 0xe0, 0xa6, 0xf0, 0xac, 0x85, 0xcf,
  0x36, 0x27, 0x21, 0xdb, 0xa8, 0x0f, 0x41, 0x9a, 0x9d, 0xdc, 0x30, 0x0d,
  0xdd, 0x0e, 0xe0, 0xf7, 0x0b, 0x0a, 0x02, 0x1f, 0x48, 0xb6, 0xb6, 0xc2,
  0xcd, 0x48, 0x06, 0xce, 0xac, 0xf5, 0xfb, 0xd1, 0xbf, 0xa8, 0x27, 0xe7,
  0x92, 0x93, 0xa9, 0x31, 0x4c, 0x32, 0xee, 0xe1, 0xf4, 0x2b, 0xbc, 0x99,
  0xd1, 0x3e, 0xa0, 0x9c, 0x9c, 0xa9, 0xa9, 0xc9, 0xbc, 0xe7, 0x47, 0xce,
  0xfd, 0xcd, 0xef, 0x07, 0x2c, 0x31, 0x35, 0x38, 0xb1, 0x05, 0xef, 0x1f,
  0xb9, 0xe9, 0xcb, 0xb3, 0x39, 0x24, 0xc9, 0x45, 0xc4, 0x1c, 0x54, 0xd3,
  0xdc, 0xfc, 0x2d, 0xdb, 0x19, 0xf9, 0xf3, 0xb8, 0xca, 0x40, 0xa2, 0xf7,
  0x38, 0xec, 0xb4, 0xfb, 0xed, 0xb5, 0xf9, 0x11, 0x97, 0xc4, 0xf4, 0x03,
  0x25, 0x33, 0x55, 0xf1, 0xd7, 0xa9, 0xf0, 0xe2, 0x25, 0xb8, 0x37, 0xf7,
  0x2d, 0x94, 0x37, 0x2a, 0xfb, 0xdd, 0x34, 0xa7, 0x23, 0xcd, 0xb9, 0xd8,
  0xe7, 0xab, 0x18, 0x1d, 0xec, 0x26, 0xfc, 0xec, 0x19, 0x26, 0xec, 0xa7,
  0xb9, 0xf5, 0xed, 0xfd, 0xa0, 0x91, 0x36, 0x9b, 0x2f, 0x01, 0xc8, 0x1c,
  0x2a, 0xd2, 0xee, 0xb7, 0xf7, 0x37, 0xb3, 0xe0, 0xad, 0xf3, 0xb3, 0x24,
  0xe5, 0x0a, 0x9f, 0xbf, 0x33, 0xe4, 0xd6, 0xfe, 0x10, 0x05, 0xf4, 0xae,
  0xd2, 0xb7, 0xf1, 0x14, 0xa3, 0xe6, 0xdc, 0xd9, 0x9a, 0xb4, 0x0c, 0xbe,
  0x0d, 0x27, 0xad, 0xbb, 0x1e, 0x17, 0x2e, 0xce, 0xf4, 0xa8, 0xc5, 0xe0,
  0xf2, 0x92, 0xac, 0x0e, 0xe8, 0xfb, 0xd9, 0x9c, 0xcd, 0x29, 0x38, 0x8d,
  0x1e, 0x1d, 0xba, 0xe8, 0x06, 0xed, 0xaf, 0xfb, 0xa2, 0xdd, 0xc0, 0x38,
  0xad, 0xc0, 0x3a, 0x3d, 0x1f, 0x93, 0xc4, 0xb0, 0xd3, 0x3c, 0xd2, 0x0e,
  0x2a, 0xb5, 0x0f, 0xda, 0x2f, 0xb5, 0xf5, 0xde, 0xda, 0xcf, 0x0d, 0xd2,
  0xc0, 0xe9, 0x87, 0xb4, 0xe4, 0xb3, 0xee, 0x85, 0xae, 0x2b, 0xc8, 0x01,
  0xd5, 0xb0, 0xe4, 0x90, 0xd8, 0xc4, 0x36, 0xe6, 0x36, 0x5c, 0x11, 0x2a,
  0xcd, 0xbb, 0xa5, 0x2b, 0xbb, 0xce, 0x5b, 0x90, 0x9b, 0x1f, 0x26, 0xa9,
  0xd0, 0x9f, 0xce, 0x8b, 0x37, 0x81, 0xa5, 0xc9, 0x3a, 0xc1, 0xe3, 0x83,
  0x39, 0x1b, 0x2b, 0x97, 0x01, 0xbf, 0xbf, 0x3b, 0xf7, 0x9f, 0xab, 0x06,
  0x12, 0x82, 0xf6, 0x9e, 0xd1, 0xf2, 0xeb, 0x08, 0x33, 0x8f, 0x10, 0x25,
  0xef, 0xad, 0xd4, 0x17, 0x8d, 0x04, 0xb5, 0x08, 0xd9, 0xde, 0x3d, 0xbc,
  0x82, 0xd9, 0x0e, 0x12, 0x04, 0xa6, 0x1b, 0x36, 0x03, 0xaf, 0xa4, 0xcc,
  0xba, 0x2e, 0xe4, 0xbf, 0x3e, 0xa7, 0xb4, 0xbe, 0xc7, 0xe3, 0xd9, 0xd3,
  0xad, 0xce, 0xf9, 0x8f, 0xc6, 0xa3, 0xf0, 0xff, 0xb9, 0xad, 0xb1, 0xe5,
  0xd3, 0xb2, 0xc8, 0xab, 0xa1, 0x0c, 0xbe, 0xa0, 0x27, 0xe9, 0xf8, 0x38,
  0x96, 0x31, 0xbf, 0xd9, 0xa3, 0x33, 0x94, 0x3d, 0x46, 0xc1, 0xf0, 0x4b,
  0x5f, 0x01, 0xc0, 0xcc, 0x14, 0xcb, 0xba, 0xf4, 0xd3, 0x12, 0xb5, 0x36,
  0xf6, 0xe7, 0xd7, 0x2e, 0xf2, 0xb0, 0xc8, 0x28, 0xf4, 0xe8, 0x21, 0xd7,
  0x9a, 0x87, 0x1a, 0x8f, 0xb2, 0x9d, 0xf0, 0x42, 0x8f, 0x49, 0xef, 0x9d,
  0xeb, 0x28, 0x46, 0x5f, 0xd1, 0xb7, 0xa7, 0xfc, 0x90, 0xa3, 0xa5, 0xb8,
  0xca, 0x22, 0x96, 0x03, 0x59, 0xf1, 0xbb, 0xce, 0x00, 0x4f, 0x09, 0x01,
  0x1f, 0xb4, 0x49, 0x3a, 0xeb, 0xaa, 0xc8, 0x4a, 0x91, 0xcd, 0x18, 0xc7,
  0xd6, 0xee, 0x45, 0x12, 0xd0, 0xd2, 0xf1, 0xb9, 0x0e, 0x4e, 0x0a, 0x4d,
  0xed, 0x0f, 0xab, 0x8b, 0xab, 0xda, 0xd4, 0xa1, 0x4f, 0xd1, 0xe7, 0xdd,
  0x1e, 0x12, 0x3e, 0xe7, 0x09, 0x16, 0x63, 0x32, 0x16, 0x09, 0x47, 0x2f,
  0x9a, 0xa1, 0xf9, 0x0f, 0xae, 0xad, 0x83, 0xa8, 0xda, 0xe2, 0x47, 0xe4,
  0x06, 0xfb, 0x19, 0x06, 0xf8, 0x22, 0xf7, 0x2b, 0x07, 0xa6, 0xdd, 0xd9,
  0xbd, 0x95, 0xae, 0x17, 0xf1, 0xa0, 0x2d, 0xf2, 0xcf, 0x46, 0x4f, 0xfa,
  0xc0, 0xd0, 0x16, 0xee, 0xd6, 0xa1, 0x9f, 0xef, 0x22, 0x92, 0x1f, 0x47,
  0xf0, 0xd4, 0x8c, 0xd6, 0xc1, 0x4a, 0xd7, 0x98, 0x37, 0x06, 0xd7, 0x1f,
  0x8a, 0x11, 0xfb, 0xb4, 0xaa, 0x81, 0x90, 0xac, 0xde, 0xe6, 0xb5, 0xd1,
  0x57, 0xac, 0x92, 0x1b, 0x2f, 0xc4, 0xa1, 0x21, 0x9d, 0x8f, 0x1c, 0x94,
  0x43, 0x91, 0x18, 0xbe, 0x27, 0x45, 0x4a, 0x2f, 0x09, 0x61, 0x32, 0xd9,
  0xfa, 0xce, 0xb8, 0x86, 0x51, 0x28, 0x2b, 0x1b, 0x1f, 0xeb, 0xa9, 0xe7,
  0xd1, 0xe8, 0xd2, 0xa4, 0xe0, 0x38, 0x1b, 0x13, 0x49, 0x87, 0xae, 0xd0,
  0x02, 0x97, 0xae, 0x5e, 0x4c, 0xa3, 0x00, 0xe9, 0xa4, 0x36, 0x32, 0xad,
  0x39, 0x24, 0xd8, 0x0b, 0xbe, 0xba, 0x49, 0x38, 0xea, 0xdf, 0x02, 0xef,
  0xf8, 0x2c, 0x18, 0x00, 0x27, 0x44, 0x50, 0x01, 0xf3, 0x2a, 0x43, 0xdf,
  0x21, 0xd9, 0xf8, 0x16, 0x21, 0xd9, 0x13, 0xfc, 0x07, 0x2c, 0xa0, 0xf3,
  0x05, 0x0b, 0xce, 0x0f, 0x24, 0x0f, 0x09, 0x22, 0x29, 0x38, 0x4a, 0xf5,
  0x4d, 0x3b, 0x4b, 0xe1, 0xfd, 0x0e, 0xf5, 0xd9, 0x1d, 0x00, 0x2f, 0x16,
  0x07, 0x21, 0x2e, 0xe0, 0x27, 0x14, 0x16, 0xca, 0x18, 0x48, 0x07, 0xf0,
  0x15, 0xe7, 0xd7, 0x1f, 0x12, 0xa4, 0xbc, 0x06, 0xfe, 0xc3, 0xb9, 0x18,
  0x26, 0xcb, 0xcc, 0xff, 0x24, 0xfc, 0x09, 0x35, 0x14, 0xf5, 0x17, 0x18,
  0x15, 0xb8, 0x0a, 0x26, 0x18, 0xb3, 0xde, 0xf3, 0xfb, 0x10, 0xe4, 0x0c,
  0x29, 0x0d, 0xee, 0xfa, 0x03, 0x68, 0x7f, 0x0a, 0xf1, 0x03, 0xfe, 0x03,
  0xfc, 0xf1, 0x0d, 0x09, 0x4b, 0xfc, 0x1c, 0xe5, 0x16, 0xed, 0xeb, 0xf2,
  0x20, 0xd2, 0xdb, 0xf6, 0xeb, 0xeb, 0x0a, 0x07, 0x32, 0x30, 0x61, 0xf9,
  0xe1, 0xdb, 0x22, 0xf7, 0xf7, 0xda, 0xf9, 0x0a, 0x14, 0xfa, 0x15, 0x0b,
  0xf2, 0xf1, 0xc5, 0x0a, 0xde, 0xee, 0xc3, 0xf6, 0x08, 0xcc, 0xc7, 0x0b,
  0xf1, 0x12, 0xf4, 0xdf, 0x37, 0x31, 0x16, 0xec, 0x16, 0x4d, 0x1c, 0xd4,
  0xfa, 0x2f, 0x07, 0x21, 0xeb, 0x35, 0xeb, 0xe8, 0x13, 0x47, 0x40, 0xe4,
  0xeb, 0xc1, 0xec, 0xe9, 0x04, 0xf9, 0x00, 0x15, 0x01, 0x0d, 0xf5, 0x05,
  0x2c, 0xe9, 0xb6, 0x2b, 0x15, 0xd9, 0x3f, 0x13, 0xff, 0x06, 0x00, 0x03,
  0x19, 0x10, 0x12, 0xea, 0x21, 0x02, 0x20, 0x19, 0xd6, 0xcb, 0xdc, 0xf5,
  0xfc, 0xe1, 0x2b, 0x16, 0x22, 0x11, 0xd7, 0xd9, 0x02, 0x42, 0xf3, 0xd6,
  0x29, 0x1d, 0x04, 0xfd, 0x17, 0x1a, 0xfb, 0x00, 0xe0, 0x07, 0xf0, 0x1a,
  0xeb, 0x16, 0x47, 0x09, 0xc4, 0x05, 0x31, 0x20, 0xf2, 0xe2, 0xfd, 0x26,
  0xac, 0x3a, 0xc7, 0xa5, 0xe8, 0xe5, 0x09, 0x03, 0xc6, 0xf9, 0x28, 0x9d,
  0x17, 0xea, 0x0f, 0x0e, 0x8f, 0xc6, 0xc8, 0x86, 0x00, 0xa8, 0xa5, 0x09,
  0xe7, 0x84, 0x40, 0x91, 0x22, 0x3f, 0xf8, 0xb9, 0xb9, 0x3e, 0xa8, 0x9c,
  0x1f, 0xb9, 0x93, 0xaa, 0xbe, 0x45, 0xff, 0xb2, 0xa2, 0x8d, 0x93, 0x4c,
  0xa7, 0x09, 0xf1, 0x0f, 0x44, 0xc6, 0x2b, 0x12, 0xb3, 0xb0, 0x45, 0xbd,
  0xf9, 0xd2, 0xfd, 0xad, 0x58, 0xc0, 0xfe, 0xa4, 0x46, 0xee, 0x83, 0xee,
  0x4e, 0xc5, 0xf7, 0xba, 0xe6, 0xf3, 0xf4, 0xc0, 0x43, 0x4b, 0x8f, 0xf5,
  0xd5, 0xbb, 0x24, 0x2e, 0xdc, 0xf7, 0x95, 0x0a, 0xe1, 0xf4, 0xeb, 0xef,
  0xe1, 0x0f, 0xae, 0xb9, 0xda, 0xb9, 0xf4, 0xe7, 0x33, 0xd4, 0xe6, 0x81,
  0xe5, 0x01, 0x42, 0xf7, 0xf6, 0xe8, 0x2d, 0x8d, 0x3b, 0xad, 0x18, 0x05,
  0xbe, 0x0f, 0x08, 0x96, 0xd4, 0xf3, 0x06, 0x08, 0x94, 0x08, 0x0b, 0x19,
  0x8b, 0xe6, 0x2e, 0xe6, 0x0c, 0xc0, 0xa5, 0xdd, 0xf6, 0x2e, 0xe2, 0x39,
  0xb9, 0x06, 0xce, 0x2b, 0xc7, 0xe9, 0x89, 0xe5, 0x58, 0x86, 0xa4, 0xba,
  0xf6, 0xb3, 0xa2, 0x9b, 0x21, 0x06, 0x09, 0x42, 0x43, 0xb4, 0x89, 0x05,
  0xa1, 0xce, 0x01, 0xd5, 0xe0, 0x96, 0x0b, 0xe9, 0xc1, 0x30, 0xb0, 0x94,
  0x9d, 0x9a, 0xe1, 0xfa, 0x33, 0xc7, 0xb6, 0xf3, 0xcc, 0xfa, 0xd0, 0xc7,
  0xcc, 0x33, 0xb1, 0xd0, 0xda, 0xba, 0xfa, 0xe2, 0xdc, 0xbb, 0xd2, 0xdb,
  0xbe, 0xc6, 0xe0, 0x36, 0xac, 0xe5, 0x14, 0x33, 0x01, 0xa3, 0x8b, 0x41,
  0xfe, 0xae, 0x40, 0xa4, 0x17, 0x2b, 0x1a, 0x19, 0xa8, 0x0f, 0x9b, 0xc4,
  0x9e, 0x0e, 0xf2, 0xe6, 0x30, 0xc2, 0xbd, 0x47, 0xee, 0xa1, 0x45, 0x32,
  0x96, 0xfc, 0x19, 0xcb, 0x8f, 0xce, 0x2b, 0x3c, 0xc4, 0x03, 0x8e, 0xc3,
  0x89, 0xdc, 0xc0, 0xc7, 0x44, 0x46, 0x0b, 0xfe, 0x25, 0xf6, 0x2f, 0x23,
  0xbf, 0xbc, 0xc2, 0x04, 0x1a, 0xef, 0xbe, 0x12, 0xe1, 0x56, 0x04, 0xf7,
  0xfa, 0x50, 0xde, 0x04, 0x18, 0xc9, 0x5b, 0x18, 0xfc, 0xda, 0x29, 0xfa,
  0xd5, 0xf1, 0x05, 0x0b, 0xbf, 0xd6, 0xba, 0x05, 0xd8, 0xdb, 0xaa, 0x1e,
  0xe2, 0x13, 0xfc, 0x18, 0x01, 0xf2, 0xe8, 0xff, 0xf7, 0x02, 0x08, 0x4e,
  0xf1, 0xe2, 0xde, 0x57, 0x24, 0xe8, 0xdc, 0x14, 0x11, 0x3c, 0x31, 0x0b,
  0xfa, 0x6e, 0x73, 0x13, 0x2d, 0x3c, 0x2d, 0xe4, 0xf7, 0x08, 0x39, 0xfa,
  0x11, 0xfd, 0xe4, 0xe8, 0xfb, 0x10, 0x0f, 0x06, 0xf9, 0x56, 0xf6, 0x01,
  0xd3, 0x46, 0x24, 0x22, 0x18, 0x0e, 0xff, 0x0b, 0xf5, 0x25, 0x38, 0xe8,
  0xde, 0xa6, 0x81, 0x11, 0xf5, 0x1f, 0xe5, 0x02, 0x00, 0xfb, 0xdc, 0x0d,
  0xd3, 0xeb, 0xd9, 0xfc, 0xef, 0x10, 0x2a, 0xf0, 0xf4, 0x28, 0x3e, 0x12,
  0x28, 0xf6, 0x15, 0xf2, 0xb3, 0xb6, 0xb9, 0x12, 0x09, 0x0a, 0xe4, 0xfe,
  0x23, 0x1a, 0xfc, 0x12, 0x0b, 0x07, 0xd4, 0xfe, 0x15, 0x35, 0x39, 0x0c,
  0x2c, 0x43, 0x68, 0xff, 0xf3, 0x4d, 0x58, 0x16, 0xf3, 0xf1, 0x2b, 0x33,
  0xbc, 0xf1, 0xf5, 0x16, 0xf3, 0xb3, 0xf7, 0x46, 0xed, 0xe9, 0xf3, 0xfc,
  0x02, 0xdd, 0x42, 0x21, 0x32, 0xa7, 0xb5, 0x39, 0x25, 0x5a, 0x47, 0x31,
  0x1e, 0x1c, 0x1d, 0x23, 0xf9, 0x1a, 0x23, 0xf0, 0x00, 0x29, 0x56, 0xe8,
  0x26, 0x58, 0xd1, 0x15, 0xf1, 0x17, 0x10, 0x10, 0xdd, 0x05, 0x16, 0x25,
  0x1d, 0x05, 0xfa, 0xe6, 0x33, 0x1c, 0x12, 0xef, 0x02, 0xfc, 0xb9, 0x03,
  0xc3, 0xce, 0x25, 0x11, 0xe5, 0xed, 0x16, 0x42, 0xe6, 0xe1, 0xe8, 0x17,
  0xd7, 0xef, 0x27, 0x0e, 0x16, 0x1a, 0x30, 0xfa, 0x48, 0xf5, 0xca, 0xfa,
  0x4e, 0x1a, 0xd9, 0xe8, 0x36, 0x3c, 0x1d, 0xd5, 0x01, 0x0c, 0x01, 0xf1,
  0xfa, 0xc1, 0xf7, 0xd2, 0x1f, 0xe6, 0x03, 0x4b, 0x50, 0xf8, 0xf3, 0x30,
  0x13, 0x44, 0x06, 0x22, 0xee, 0x22, 0xdf, 0x06, 0x0f, 0xcf, 0x31, 0xd2,
  0xec, 0xe7, 0x50, 0xb5, 0x0d, 0x00, 0x2f, 0xec, 0xd9, 0xc2, 0xd0, 0x17,
  0xf9, 0xcc, 0x99, 0x00, 0xec, 0x12, 0x36, 0xe2, 0x0c, 0xf8, 0xe1, 0xf8,
  0xd6, 0xb4, 0xb5, 0xd7, 0xee, 0xda, 0x24, 0xe0, 0x12, 0xe2, 0x2c, 0x3e,
  0xfa, 0x3a, 0x4f, 0xff, 0x01, 0x60, 0x7c, 0x36, 0x06, 0x3c, 0x5f, 0xf4,
  0xca, 0xc8, 0x0f, 0xce, 0x1c, 0x24, 0x2d, 0xd9, 0xff, 0x27, 0x20, 0x24,
  0xe3, 0x40, 0x25, 0x3a, 0xd0, 0xf3, 0xf2, 0x0c, 0x2a, 0x1d, 0x26, 0x28,
  0xda, 0xe2, 0x13, 0x0d, 0x2b, 0x1f, 0x16, 0x31, 0x0d, 0x1d, 0x3b, 0x07,
  0x13, 0x07, 0xf2, 0xea, 0xeb, 0x14, 0x0a, 0xee, 0x28, 0x0b, 0x28, 0xf5,
  0xcd, 0xec, 0x17, 0xe8, 0xf2, 0x1b, 0x16, 0x08, 0x0a, 0x1d, 0x2a, 0x0e,
  0x2e, 0xfe, 0x0c, 0xf4, 0xde, 0xd3, 0x16, 0xfd, 0xf3, 0x0e, 0xd3, 0xfe,
  0x07, 0x55, 0x65, 0xf5, 0x48, 0x5d, 0x7f, 0xe9, 0xc9, 0xf9, 0x20, 0xf2,
  0x11, 0x12, 0xeb, 0x06, 0xb8, 0x34, 0xd0, 0x0c, 0xfd, 0xdb, 0x18, 0xcf,
  0xe3, 0xb9, 0x00, 0xe5, 0xe8, 0xed, 0xef, 0xe5, 0x16, 0xe2, 0xe1, 0xfd,
  0xe5, 0xe5, 0xed, 0xe9, 0xf8, 0xfc, 0x22, 0xe9, 0x0c, 0xfb, 0x29, 0x19,
  0x1c, 0x08, 0x4e, 0x0b, 0xe4, 0x0a, 0xfb, 0x24, 0xf7, 0xf9, 0xd2, 0x17,
  0xf7, 0x1b, 0x0c, 0x07, 0x02, 0x57, 0x24, 0xe7, 0x1f, 0x5c, 0x05, 0x01,
  0xea, 0xef, 0xc7, 0xfa, 0x08, 0x19, 0x1a, 0x1a, 0x0f, 0xf6, 0xe4, 0x10,
  0xce, 0xcf, 0xf4, 0xe8, 0xac, 0xdc, 0x34, 0x1d, 0xe9, 0xf7, 0xde, 0xdd,
  0xdc, 0x15, 0xe1, 0xcd, 0xdf, 0xe4, 0xd2, 0xe1, 0xe3, 0xea, 0xcf, 0xeb,
  0xf0, 0xc5, 0xde, 0x04, 0xf1, 0xe1, 0xc5, 0xda, 0xd1, 0x25, 0xb8, 0xe5,
  0xc9, 0xee, 0x1d, 0x37, 0xf2, 0x19, 0xfe, 0xdd, 0xc0, 0x00, 0x0d, 0x0e,
  0x8f, 0x14, 0xf3, 0xe1, 0x24, 0xcb, 0xfe, 0xf1, 0x14, 0x1b, 0xec, 0xe1,
  0x1b, 0x20, 0xaf, 0x09, 0x1a, 0x1a, 0x19, 0xfc, 0xdd, 0x0e, 0xfe, 0xd7,
  0x24, 0x02, 0xfe, 0xec, 0x10, 0x05, 0xd9, 0x06, 0xed, 0xbf, 0xbd, 0xbf,
  0xea, 0x0e, 0x02, 0x0e, 0xcf, 0xc5, 0xfd, 0x08, 0x31, 0xc9, 0x37, 0x24,
  0x5b, 0x3a, 0x3a, 0xfa, 0x41, 0xb0, 0x36, 0xf8, 0xcf, 0x19, 0x2c, 0x27,
  0x25, 0xdc, 0xe6, 0xf7, 0x00, 0xbb, 0xf5, 0xae, 0xed, 0x03, 0xef, 0x00,
  0x31, 0xea, 0xfd, 0x2c, 0x03, 0x2e, 0xc2, 0xfb, 0x22, 0xde, 0x8b, 0x27,
  0xaa, 0x42, 0xdd, 0xdc, 0xea, 0xc5, 0xde, 0xea, 0xa7, 0x14, 0xeb, 0x12,
  0xf5, 0xcf, 0x08, 0xcf, 0xef, 0x03, 0x17, 0xd5, 0xec, 0x00, 0x21, 0x87,
  0xf1, 0x07, 0xab, 0xc4, 0x02, 0xf6, 0xe8, 0xe4, 0xa4, 0x2e, 0x2a, 0x09,
  0x04, 0xd4, 0xe4, 0xc4, 0xf9, 0xb7, 0x2f, 0xc0, 0xbf, 0xbd, 0xad, 0xd3,
  0x08, 0x9d, 0xf8, 0xd1, 0x3d, 0xd4, 0x09, 0xc3, 0xed, 0x29, 0xa4, 0xf1,
  0x34, 0xe2, 0xbb, 0xe6, 0xe3, 0x10, 0xbb, 0x9a, 0x17, 0xf1, 0xf9, 0xb0,
  0xc6, 0xb9, 0xaa, 0x43, 0xa5, 0x18, 0x2a, 0xf2, 0xd7, 0x04, 0xb5, 0xef,
  0xbf, 0x2c, 0xdf, 0xdf, 0xc0, 0xc8, 0xb6, 0xc4, 0xf7, 0xe7, 0xb4, 0xc1,
  0x04, 0x30, 0xf8, 0x0d, 0xe4, 0xa5, 0xb7, 0x1c, 0xc9, 0x13, 0xd1, 0xf4,
  0xca, 0xc3, 0x16, 0xc5, 0xae, 0xe9, 0xda, 0xeb, 0xe7, 0xa9, 0xc8, 0xea,
  0xa1, 0xf3, 0xba, 0x0e, 0x81, 0xff, 0xce, 0x0e, 0x00, 0xbc, 0xd9, 0xa7,
  0xf9, 0xf6, 0xb9, 0xf0, 0x04, 0xd7, 0xe9, 0x14, 0xba, 0x02, 0xb3, 0xf4,
  0xde, 0xde, 0x07, 0x0b, 0x21, 0x27, 0x09, 0x09, 0x37, 0x0d, 0x12, 0x21,
  0xcf, 0xbf, 0xe3, 0x0f, 0x1a, 0x00, 0xc6, 0x19, 0xfc, 0x2a, 0x2a, 0xf1,
  0xe7, 0x3c, 0xdc, 0x10, 0xf6, 0xde, 0x76, 0x17, 0xfd, 0xfb, 0x2b, 0xec,
  0xd4, 0xfc, 0x08, 0xdd, 0xde, 0xc9, 0xc0, 0x11, 0xb9, 0xd3, 0xc3, 0x1e,
  0xdf, 0x1b, 0x15, 0x3b, 0x01, 0x07, 0xd9, 0x12, 0xec, 0x02, 0x06, 0x55,
  0xfd, 0xff, 0xe0, 0x48, 0x00, 0xe2, 0x01, 0x1c, 0xf5, 0x33, 0x20, 0xe2,
  0xfa, 0x71, 0x65, 0x22, 0x17, 0x48, 0x52, 0xe9, 0x04, 0x2e, 0x1e, 0xf1,
  0x12, 0x28, 0xff, 0xec, 0xdc, 0x00, 0xea, 0xe3, 0xec, 0x51, 0x1f, 0x01,
  0xd8, 0x52, 0x20, 0x07, 0xf5, 0x12, 0x0e, 0xee, 0xe7, 0x03, 0x37, 0x0f,
  0x0a, 0xb3, 0x81, 0xfc, 0x0d, 0x18, 0xfc, 0x07, 0xf2, 0xf7, 0xe2, 0x03,
  0xc5, 0xf4, 0x06, 0x11, 0xed, 0x0a, 0x11, 0xfb, 0xea, 0x2c, 0x38, 0xf9,
  0x26, 0x0f, 0xf9, 0xf7, 0xd5, 0xba, 0xaf, 0x18, 0x0a, 0x2e, 0xf3, 0x1c,
  0x09, 0x18, 0x05, 0x29, 0xfb, 0x06, 0xf6, 0xf2, 0x1b, 0x2b, 0x4d, 0xdd,
  0x54, 0x28, 0x5a, 0x06, 0xff, 0x3b, 0x43, 0xfe, 0xec, 0xf2, 0x18, 0x22,
  0xd9, 0xe3, 0x07, 0x0d, 0xdb, 0xbb, 0xdb, 0x2f, 0xef, 0xc8, 0x0f, 0xdc,
  0x1a, 0x02, 0x1b, 0x16, 0x15, 0x8e, 0xb2, 0x35, 0x24, 0x4d, 0x44, 0x1e,
  0x24, 0x42, 0xf6, 0x06, 0x07, 0x19, 0xfa, 0x04, 0x00, 0x2d, 0x4f, 0xda,
  0x11, 0x58, 0xdb, 0x12, 0xf9, 0xe4, 0xfc, 0x0a, 0xf0, 0xee, 0xf2, 0x03,
  0xf5, 0x10, 0x01, 0x05, 0x48, 0x1c, 0x13, 0xff, 0x15, 0x20, 0xd0, 0xf7,
  0xc7, 0xdf, 0x1a, 0x24, 0x0c, 0xe7, 0x1e, 0x20, 0xed, 0x05, 0xe8, 0x12,
  0xd6, 0xf0, 0x16, 0x07, 0x04, 0x11, 0x26, 0xf6, 0x2a, 0xeb, 0xb6, 0x00,
  0x3e, 0xfc, 0xe2, 0x02, 0x20, 0x08, 0x0b, 0xe3, 0xd3, 0xce, 0xd0, 0xae,
  0xe8, 0x23, 0xe9, 0x24, 0xb9, 0xf2, 0x00, 0x07, 0xc7, 0xac, 0xb2, 0xb3,
  0xec, 0xf6, 0xf9, 0x0b, 0xdf, 0x38, 0x2b, 0x09, 0x1a, 0xd8, 0x1b, 0xc9,
  0x30, 0xab, 0xe9, 0xd2, 0x21, 0x06, 0x0a, 0x02, 0xe2, 0xdf, 0xa0, 0x15,
  0x0e, 0xa9, 0xa2, 0xf3, 0xca, 0xd3, 0xc3, 0x3b, 0xd4, 0x96, 0x81, 0xed,
  0xd5, 0x38, 0x2e, 0xc8, 0xd0, 0xa2, 0xe5, 0xf8, 0xf6, 0xfb, 0xf6, 0xb9,
  0xb2, 0xbf, 0x07, 0x04, 0xcb, 0xf0, 0xe8, 0xbb, 0x94, 0xdf, 0xa1, 0x1e,
  0x11, 0x11, 0x18, 0x14, 0x1d, 0xab, 0x31, 0xeb, 0xc0, 0xbf, 0xbb, 0x1b,
  0x25, 0x43, 0x23, 0x99, 0xcf, 0xd9, 0xac, 0x96, 0x02, 0x18, 0x16, 0xef,
  0x52, 0xe4, 0x78, 0xfc, 0x9e, 0x09, 0x6d, 0xbd, 0xf4, 0xab, 0xee, 0xdd,
  0xc7, 0xbf, 0x2e, 0xfe, 0xd3, 0x25, 0xff, 0x09, 0xeb, 0x12, 0xa6, 0x14,
  0xb4, 0x02, 0xae, 0xf3, 0xbd, 0x31, 0xd6, 0xe8, 0x24, 0xad, 0xf1, 0x2c,
  0xfb, 0x09, 0xcf, 0x0a, 0x1c, 0xae, 0xe7, 0x0c, 0xc5, 0x41, 0x3b, 0xd8,
  0xd9, 0x9f, 0xa2, 0xf8, 0xd2, 0x0d, 0xb3, 0xc7, 0xa2, 0xf5, 0x94, 0x31,
  0xd5, 0x95, 0xd0, 0xb9, 0x10, 0x00, 0xfa, 0xa8, 0xea, 0xee, 0xb2, 0x0b,
  0xdc, 0x1f, 0xe7, 0xd4, 0xe4, 0xea, 0xd9, 0x0a, 0xb7, 0xdf, 0x0e, 0x23,
  0xc4, 0xfa, 0xe1, 0x1b, 0x95, 0xce, 0xc2, 0x95, 0x25, 0xff, 0xde, 0xd3,
  0xd6, 0x38, 0xec, 0x0f, 0x08, 0xcd, 0x2f, 0x8a, 0x2c, 0x0f, 0xea, 0xbd,
  0x42, 0xe6, 0xc2, 0x26, 0x20, 0xc2, 0xc6, 0xd5, 0xd9, 0x2e, 0xc6, 0xe9,
  0xf4, 0xd3, 0x94, 0xab, 0x33, 0xc4, 0x34, 0xf3, 0xbe, 0xf0, 0xfb, 0xda,
  0xb6, 0x9f, 0x0f, 0x1b, 0xf9, 0xd0, 0xda, 0xdc, 0xb2, 0xa4, 0x94, 0x99,
  0x97, 0xde, 0x0b, 0xa8, 0x97, 0x9a, 0xa0, 0xcf, 0x15, 0xa3, 0xd9, 0x26,
  0x3e, 0x3b, 0x0c, 0x04, 0x1e, 0x01, 0x06, 0x3a, 0xc2, 0xbd, 0xe6, 0x14,
  0x07, 0xfd, 0xcb, 0x06, 0xfa, 0x50, 0x0f, 0xf1, 0xe1, 0x50, 0xeb, 0xee,
  0xf0, 0xcf, 0x53, 0x03, 0x2c, 0xf1, 0x2f, 0xfe, 0xd1, 0xfd, 0x03, 0xf0,
  0xe5, 0xc6, 0xc5, 0x13, 0xb7, 0xdb, 0xa4, 0x1b, 0x07, 0x08, 0x15, 0x28,
  0xf7, 0xf8, 0xda, 0xff, 0x0f, 0xef, 0xea, 0x52, 0xde, 0xf1, 0xdd, 0x57,
  0x18, 0xd1, 0xe0, 0x2c, 0x13, 0x26, 0x27, 0xe5, 0xf4, 0x6c, 0x48, 0x0f,
  0x27, 0x42, 0x4a, 0xee, 0x01, 0x27, 0x34, 0x02, 0xfe, 0x03, 0x0c, 0xe3,
  0xe6, 0x04, 0xee, 0xff, 0x10, 0x36, 0xfb, 0x0e, 0xf9, 0x4b, 0x3d, 0xf8,
  0x03, 0x06, 0x2b, 0xfa, 0xfa, 0x0d, 0x25, 0x10, 0xfb, 0x81, 0x94, 0xec,
  0x08, 0x06, 0xfa, 0xef, 0xf9, 0x21, 0xe9, 0x0d, 0xb9, 0xe7, 0xff, 0x0b,
  0xe2, 0xff, 0x30, 0xf5, 0xf3, 0x32, 0x26, 0x03, 0x0a, 0x24, 0x05, 0xf0,
  0xa2, 0xe8, 0xab, 0x0c, 0x12, 0x23, 0x01, 0x1f, 0x0d, 0x26, 0x14, 0xfc,
  0xf0, 0x0d, 0xea, 0x0e, 0x20, 0x1e, 0x31, 0xff, 0x45, 0x26, 0x6d, 0x07,
  0xea, 0x36, 0x5e, 0x0a, 0xe9, 0x0b, 0x30, 0x19, 0xaf, 0xe4, 0xf2, 0x09,
  0xf5, 0xad, 0xfb, 0x2c, 0xf6, 0xdc, 0x12, 0xdc, 0x0c, 0xf2, 0x3e, 0x14,
  0x0d, 0x99, 0xb3, 0x2f, 0x3e, 0x36, 0x38, 0x23, 0x15, 0x21, 0x00, 0x25,
  0xe2, 0xf4, 0x04, 0xeb, 0xdf, 0x2a, 0x6d, 0xd9, 0x0e, 0x4b, 0xe7, 0x17,
  0xfd, 0x08, 0x0d, 0xf9, 0xe2, 0x07, 0xf9, 0x0e, 0xf5, 0x1e, 0xdf, 0xfe,
  0x25, 0x1b, 0x21, 0x0a, 0xfb, 0x12, 0xc8, 0x1b, 0xc0, 0xc2, 0x17, 0x13,
  0xf3, 0xec, 0xfd, 0x2b, 0xd7, 0xe5, 0xe0, 0x1a, 0xe7, 0x04, 0x10, 0x14,
  0x07, 0x1a, 0x12, 0x07, 0x44, 0x0b, 0xc1, 0xef, 0x4d, 0x00, 0x01, 0x06,
  0x17, 0x0c, 0x06, 0xfa, 0x85, 0x0c, 0xf3, 0xed, 0xd6, 0xd7, 0xde, 0x10,
  0x44, 0xdc, 0x19, 0x0a, 0x56, 0xea, 0xc8, 0x01, 0xed, 0xd6, 0x89, 0xa0,
  0x99, 0xe3, 0x35, 0xb9, 0x50, 0x44, 0x42, 0x85, 0xd7, 0x42, 0x22, 0xcf,
  0x66, 0xdd, 0xea, 0x96, 0xdc, 0xd6, 0x84, 0x23, 0xfd, 0xdf, 0xcd, 0x06,
  0xc6, 0xd1, 0x0a, 0xf0, 0x36, 0x32, 0xb1, 0x3f, 0xbd, 0xaa, 0x03, 0xc8,
  0x22, 0x3f, 0xbd, 0x81, 0xa5, 0xb0, 0xb4, 0x15, 0xf9, 0xb4, 0x14, 0xb1,
  0x0a, 0x0d, 0xee, 0x3f, 0x06, 0x4a, 0xfa, 0xb6, 0x3f, 0xdb, 0x09, 0x31,
  0xf6, 0xde, 0x9d, 0x92, 0xa0, 0x3b, 0xa5, 0x32, 0x04, 0x18, 0xbe, 0xe3,
  0xad, 0x81, 0xaa, 0x0a, 0xef, 0x91, 0xea, 0xff, 0x39, 0xc4, 0x98, 0x37,
  0x40, 0x65, 0x3d, 0x4f, 0xef, 0x5f, 0xa6, 0x87, 0xe6, 0xbe, 0x95, 0x32,
  0x9f, 0x97, 0xf3, 0x8c, 0x93, 0x39, 0x32, 0xc7, 0x8d, 0xae, 0x8a, 0xab,
  0x19, 0x22, 0x1b, 0x34, 0xb7, 0x31, 0x61, 0xdc, 0x3c, 0x97, 0xd9, 0x1d,
  0x25, 0xc5, 0x26, 0xff, 0xf5, 0xb0, 0xa0, 0xb4, 0x49, 0xfe, 0x87, 0x01,
  0xb3, 0x83, 0xb8, 0x3a, 0x14, 0x2d, 0x9b, 0x13, 0x11, 0xf3, 0x43, 0xca,
  0xaf, 0xb5, 0xb1, 0x28, 0x48, 0x46, 0xc2, 0xfe, 0xf8, 0x9a, 0x10, 0xaa,
  0x4f, 0x53, 0x40, 0x00, 0xc3, 0xc5, 0xfb, 0x18, 0xe8, 0x13, 0xe5, 0xef,
  0x1a, 0x9d, 0x0b, 0xb9, 0xe3, 0xca, 0xd0, 0xea, 0xbf, 0xb6, 0x3d, 0xb8,
  0x14, 0xb8, 0x11, 0x06, 0x29, 0x2a, 0xa7, 0x14, 0x4e, 0x4f, 0x2d, 0xe6,
  0x1f, 0x02, 0xac, 0xb7, 0x82, 0x8c, 0xdc, 0x30, 0x82, 0xe8, 0x23, 0xb4,
  0xc7, 0xb2, 0x02, 0x17, 0x9c, 0x0d, 0x28, 0xb4, 0xc2, 0x13, 0xa6, 0xbf,
  0xfc, 0x3a, 0x90, 0xfb, 0x98, 0xb2, 0xc5, 0x1a, 0xcd, 0x28, 0xc2, 0xc3,
  0xd3, 0x38, 0x96, 0xf9, 0xba, 0xe9, 0xe1, 0xbd, 0xf9, 0xed, 0xfd, 0x01,
  0xe4, 0x2b, 0x01, 0xec, 0x2b, 0x55, 0x52, 0x0d, 0xf2, 0x2b, 0x27, 0xf8,
  0x21, 0xe4, 0xeb, 0xf7, 0x2d, 0xd6, 0x31, 0x00, 0x17, 0x32, 0xa9, 0x1b,
  0x05, 0x21, 0xf4, 0x0e, 0x27, 0x27, 0x09, 0x03, 0x3f, 0x3a, 0x41, 0xec,
  0x4f, 0x42, 0x53, 0xd7, 0x2b, 0xea, 0x09, 0xe0, 0x0f, 0x1e, 0x2a, 0xf7,
  0x0d, 0x24, 0x26, 0xdb, 0x16, 0x0e, 0x27, 0xf1, 0x16, 0x4f, 0x10, 0x0e,
  0x12, 0xe9, 0xd3, 0x26, 0xfc, 0xc0, 0xc4, 0x01, 0xfa, 0xd1, 0xd0, 0x16,
  0x07, 0xf4, 0xd9, 0x1f, 0x14, 0xe1, 0x02, 0x12, 0x15, 0xfe, 0x0e, 0x11,
  0x1b, 0xb6, 0x01, 0x08, 0x00, 0xb2, 0xd0, 0xf9, 0x1e, 0xf6, 0x0f, 0xfb,
  0x2b, 0xf1, 0xda, 0xfc, 0x04, 0x7a, 0x7f, 0x18, 0xf1, 0x09, 0x22, 0xff,
  0x22, 0xff, 0x11, 0x0f, 0x4b, 0x19, 0x14, 0x07, 0x12, 0x02, 0x04, 0x1a,
  0x33, 0xf2, 0xf0, 0xf6, 0xed, 0x1b, 0x2a, 0xfb, 0x58, 0x4e, 0x4e, 0x02,
  0xe5, 0xe3, 0x10, 0x05, 0xf8, 0xee, 0xf4, 0xf3, 0xeb, 0x02, 0x1a, 0x1a,
  0xf5, 0x04, 0xd9, 0x07, 0xe5, 0xc3, 0xc0, 0x0f, 0xf9, 0xc9, 0xd2, 0x15,
  0x1c, 0x16, 0xeb, 0xfa, 0x55, 0x3e, 0x23, 0xe6, 0x12, 0x51, 0x06, 0xf7,
  0x1a, 0x18, 0x05, 0x0d, 0xfa, 0x1f, 0xf5, 0x14, 0xf4, 0x72, 0x52, 0xdc,
  0xeb, 0xdb, 0xe5, 0xf2, 0xf0, 0xd1, 0x0e, 0xee, 0x1b, 0xf5, 0xf4, 0x23,
  0x0b, 0xdd, 0xa7, 0x1c, 0x15, 0xc5, 0x4d, 0xf0, 0x13, 0x0d, 0x00, 0x00,
  0x03, 0xf2, 0xfd, 0xff, 0x09, 0xec, 0x01, 0x17, 0xf3, 0xd2, 0xf2, 0x1f,
  0x14, 0xe9, 0x3f, 0xf2, 0x1e, 0x33, 0xe9, 0xe6, 0x19, 0x32, 0x00, 0xcc,
  0x0e, 0x0c, 0xf4, 0xf1, 0x35, 0x18, 0xf0, 0xfe, 0xfb, 0x04, 0xf5, 0x1d,
  0xe1, 0x13, 0x42, 0x0a, 0xd8, 0x04, 0x34, 0x03, 0xfc, 0xd6, 0xf0, 0x09,
  0x2c, 0x1e, 0xdb, 0xbd, 0xc5, 0xf3, 0xec, 0x98, 0xa1, 0x9c, 0x20, 0xc9,
  0xc9, 0x2a, 0x25, 0xa3, 0x2e, 0x33, 0xf4, 0xb3, 0xeb, 0x07, 0x3f, 0x05,
  0x0d, 0xfd, 0xb0, 0x05, 0x0e, 0x84, 0x8a, 0xe7, 0xf1, 0xcb, 0xa7, 0xba,
  0x9a, 0xb4, 0x19, 0x3b, 0x0b, 0xad, 0x20, 0xe8, 0x3d, 0xa4, 0x3f, 0x4f,
  0x1f, 0xae, 0x04, 0x98, 0x45, 0x4a, 0x4f, 0xfd, 0x9f, 0x06, 0xc0, 0xaf,
  0xad, 0xc7, 0x9e, 0x19, 0xf9, 0xda, 0x43, 0x13, 0xc7, 0xc4, 0xdc, 0x9e,
  0xfa, 0x27, 0xcc, 0xb7, 0xc6, 0xb2, 0x37, 0xe6, 0xb8, 0xd5, 0xa3, 0xa8,
  0xa4, 0xbf, 0xc1, 0xff, 0x15, 0x88, 0x28, 0xad, 0xb2, 0xa5, 0xc2, 0x9f,
  0xeb, 0x9d, 0xb4, 0xad, 0xe3, 0xc7, 0xc1, 0xbc, 0xc3, 0xa2, 0x00, 0xd3,
  0xcd, 0xc9, 0xe8, 0x01, 0x16, 0x02, 0x10, 0xec, 0xe4, 0xf8, 0x14, 0x02,
  0xab, 0xf8, 0x1f, 0xc8, 0xd1, 0xad, 0xe2, 0xd6, 0x09, 0x81, 0x92, 0x2d,
  0x86, 0xb2, 0xeb, 0x19, 0x00, 0x2f, 0x88, 0xbd, 0x11, 0x19, 0x19, 0x8a,
  0xed, 0xcb, 0xfc, 0xc9, 0x0f, 0x01, 0xc4, 0x40, 0xae, 0x27, 0x9a, 0xf5,
  0xce, 0x17, 0xae, 0x16, 0x1b, 0xcd, 0xe8, 0x94, 0xb6, 0x27, 0x89, 0x98,
  0x1b, 0xca, 0xbb, 0xf3, 0xfb, 0x12, 0xe9, 0xb4, 0xf6, 0xcc, 0xb6, 0xc0,
  0xbd, 0xd0, 0xd4, 0xf1, 0xea, 0xa2, 0x17, 0xa5, 0x22, 0x36, 0xa1, 0xe4,
  0x10, 0x9b, 0xe8, 0x95, 0xb8, 0xf7, 0xec, 0xca, 0x09, 0xd0, 0xa7, 0xba,
  0x38, 0xb0, 0x38, 0xe3, 0x13, 0x15, 0xb0, 0x0a, 0x18, 0xfd, 0xf7, 0xef,
  0x4b, 0x2f, 0x4c, 0xe4, 0xf0, 0x19, 0xa6, 0xf2, 0xc0, 0x8a, 0x28, 0xc6,
  0x29, 0xe1, 0x0e, 0x20, 0xc0, 0xe5, 0x30, 0xc4, 0xef, 0x26, 0xb1, 0xeb,
  0xe1, 0xc7, 0xef, 0x3c, 0xea, 0xcd, 0xc2, 0x30, 0x19, 0x40, 0x34, 0x15,
  0x98, 0xe5, 0xc5, 0xca, 0xf8, 0x01, 0xfe, 0x01, 0x03, 0x10, 0x07, 0x07,
  0x2c, 0x6e, 0x40, 0x05, 0xe1, 0x1c, 0x2d, 0xe7, 0x0d, 0xc8, 0xfe, 0x1a,
  0x1e, 0xe0, 0x32, 0xeb, 0xf7, 0x32, 0xb4, 0x11, 0x07, 0x0e, 0xe7, 0xf9,
  0x32, 0x2c, 0x0d, 0x26, 0x2a, 0x35, 0x43, 0xf1, 0x57, 0x45, 0x61, 0xe6,
  0x10, 0xec, 0xee, 0xfd, 0xf9, 0x0e, 0x29, 0xfa, 0x07, 0x25, 0x2b, 0xcf,
  0x42, 0x33, 0x33, 0xda, 0x01, 0x46, 0x15, 0xeb, 0xf2, 0xbd, 0xc3, 0xfc,
  0x11, 0xb4, 0xa0, 0xe8, 0xe7, 0xae, 0xc5, 0x22, 0x1d, 0xe4, 0xd3, 0x0e,
  0x18, 0x05, 0x16, 0x1f, 0x06, 0x0b, 0x03, 0x1a, 0x02, 0xc4, 0xfe, 0x02,
  0x10, 0xb6, 0xe5, 0x14, 0x10, 0xfd, 0xf8, 0x05, 0x33, 0x15, 0xf5, 0x14,
  0x11, 0x63, 0x7f, 0x2e, 0x1d, 0xfc, 0x2d, 0x1a, 0x03, 0x02, 0x1b, 0x01,
  0x57, 0x01, 0x18, 0xe8, 0x28, 0x02, 0xf5, 0x05, 0x29, 0xed, 0xe3, 0x05,
  0xfc, 0x18, 0x09, 0x1e, 0x5b, 0x49, 0x71, 0x05, 0x00, 0xf2, 0x2c, 0xe6,
  0x18, 0xd3, 0xfd, 0xef, 0x06, 0x15, 0x3b, 0x09, 0xe8, 0xec, 0xbd, 0x20,
  0xdd, 0xc3, 0x9f, 0x01, 0xfe, 0xdd, 0xcb, 0x0e, 0xff, 0xf9, 0xe2, 0xe4,
  0x5e, 0x35, 0x1b, 0xfd, 0x26, 0x3d, 0x2e, 0xe6, 0x1e, 0x47, 0x10, 0x01,
  0xf1, 0x32, 0xf2, 0x0c, 0x0c, 0x66, 0x5f, 0xfe, 0xec, 0xb8, 0xd9, 0xf4,
  0xe4, 0xdd, 0x00, 0xee, 0x07, 0xfb, 0xee, 0x05, 0x20, 0xec, 0xa8, 0x06,
  0xf2, 0xdf, 0x37, 0xfa, 0x0e, 0x0e, 0x13, 0xfe, 0x05, 0x0d, 0x15, 0x07,
  0x13, 0xff, 0x0f, 0x01, 0xd2, 0xcc, 0xea, 0x18, 0x09, 0xf1, 0x35, 0x0c,
  0x26, 0x18, 0xe2, 0xec, 0x24, 0x32, 0xf9, 0xee, 0x34, 0x20, 0x1f, 0xcf,
  0x23, 0x19, 0xd5, 0xfd, 0xec, 0x0d, 0xfe, 0x2b, 0xd7, 0x25, 0x5e, 0x13,
  0xd0, 0xfb, 0x2e, 0x16, 0xe9, 0xf6, 0x0f, 0x1e, 0xff, 0xe0, 0x0d, 0x05,
  0xf0, 0x29, 0x08, 0x15, 0x3d, 0x4b, 0x52, 0x07, 0xeb, 0x37, 0x1a, 0xdc,
  0xfd, 0xd3, 0xed, 0x05, 0x1a, 0xdc, 0x14, 0xe3, 0xff, 0x1d, 0xa5, 0x0b,
  0xeb, 0x11, 0xeb, 0x06, 0x22, 0x00, 0x0d, 0xfd, 0x52, 0x2f, 0x43, 0xf9,
  0x48, 0x29, 0x5c, 0xe5, 0x19, 0xf5, 0x0c, 0xe6, 0x1a, 0x13, 0x31, 0xf7,
  0x1c, 0x28, 0x20, 0xef, 0x38, 0x13, 0x05, 0xdf, 0xfe, 0x23, 0x26, 0x0d,
  0x18, 0xc6, 0xda, 0xf6, 0x06, 0xa7, 0xb6, 0x02, 0xfe, 0xc9, 0x9b, 0x17,
  0x15, 0xd5, 0xaa, 0x0c, 0x14, 0xfc, 0x1b, 0x0f, 0x17, 0xfa, 0xf5, 0x16,
  0x08, 0xd2, 0xfc, 0x0b, 0x1b, 0xbc, 0xdc, 0xfd, 0x00, 0xea, 0x05, 0x01,
  0x28, 0x05, 0xe2, 0xf7, 0x16, 0x64, 0x7f, 0xf0, 0x11, 0x1a, 0x10, 0xf8,
  0xff, 0x23, 0x28, 0xf3, 0x3b, 0x1d, 0x02, 0xe2, 0x10, 0x00, 0xc7, 0x0d,
  0x15, 0xe8, 0xc4, 0x14, 0x02, 0xfd, 0x28, 0xf3, 0x4c, 0x28, 0x69, 0xfb,
  0xfe, 0xda, 0x18, 0xfd, 0x10, 0xd2, 0xf6, 0xf4, 0x00, 0x16, 0x07, 0x0c,
  0xea, 0xe6, 0xc8, 0x1b, 0xc6, 0xe4, 0xb6, 0x08, 0xfe, 0xb3, 0xa0, 0x22,
  0xf6, 0x11, 0xf0, 0xee, 0x32, 0x3b, 0x15, 0xdb, 0x27, 0x2c, 0x18, 0xed,
  0x10, 0x14, 0x0e, 0x03, 0x14, 0x34, 0xf6, 0x16, 0xea, 0x58, 0x2c, 0xf0,
  0xe5, 0xb6, 0xac, 0xdf, 0xea, 0xe7, 0xed, 0xf8, 0xf1, 0xf6, 0x07, 0x18,
  0x03, 0xf2, 0xa0, 0xfe, 0x0e, 0xd0, 0x3f, 0xe7, 0xf6, 0x20, 0x0e, 0xe5,
  0x01, 0xf3, 0x11, 0x06, 0x16, 0x01, 0x24, 0xf1, 0xc4, 0xe3, 0x03, 0x09,
  0xf7, 0xd6, 0x1f, 0xfe, 0x42, 0x17, 0x03, 0xf9, 0x12, 0x41, 0xff, 0xe1,
  0x04, 0x0a, 0xf0, 0xf2, 0x12, 0xfc, 0xf2, 0xf8, 0x01, 0xf3, 0xfe, 0x0f,
  0xee, 0x0a, 0x34, 0x06, 0xd7, 0xf1, 0x14, 0x15, 0xfa, 0xf0, 0x03, 0x0e,
  0x2c, 0xbd, 0xfe, 0x8f, 0xb0, 0x0c, 0xbe, 0xde, 0x19, 0x1a, 0x2d, 0xff,
  0x85, 0xd4, 0xdb, 0x5c, 0x46, 0x03, 0x33, 0xac, 0x9f, 0xc9, 0xcb, 0xf0,
  0xc4, 0x05, 0x31, 0x91, 0xbb, 0x1f, 0x9a, 0x23, 0x47, 0xda, 0xc6, 0xe9,
  0x07, 0xb4, 0x2c, 0xa2, 0x1e, 0xb6, 0x92, 0xf2, 0xeb, 0x88, 0xe2, 0xb8,
  0x03, 0xaa, 0xae, 0xe0, 0xe7, 0x2c, 0xbe, 0x27, 0xf2, 0xe7, 0x19, 0xf9,
  0x28, 0xfe, 0x92, 0xf8, 0xd7, 0xc4, 0x2d, 0xb3, 0xe7, 0x25, 0xa2, 0xa5,
  0x0a, 0xc2, 0xf8, 0x96, 0xf8, 0x32, 0x47, 0x2c, 0xb2, 0xaa, 0xe3, 0x1f,
  0xab, 0x29, 0x0f, 0x1e, 0xde, 0xed, 0x0c, 0xc3, 0xdc, 0xd5, 0x23, 0xb6,
  0xda, 0xf2, 0xa2, 0xa8, 0xf3, 0x17, 0x98, 0x90, 0xe5, 0xc9, 0x14, 0x87,
  0xf7, 0xe3, 0x32, 0x44, 0xb5, 0x1f, 0xc2, 0x0b, 0x11, 0xbd, 0xe1, 0xd0,
  0xd2, 0xde, 0xb2, 0x1a, 0xfc, 0xe7, 0xfe, 0x81, 0xbe, 0x16, 0xe5, 0xf8,
  0x10, 0x14, 0xa3, 0xe1, 0xf9, 0xe2, 0x07, 0x44, 0xe2, 0xb9, 0xec, 0x3e,
  0xc2, 0x19, 0xe7, 0xe1, 0xb4, 0x18, 0xf0, 0xb0, 0x12, 0xc1, 0xcc, 0xf7,
  0x9c, 0xb9, 0x35, 0x2d, 0x2c, 0x41, 0xd0, 0xc2, 0x19, 0x89, 0xbc, 0xf8,
  0x0c, 0xd2, 0xde, 0xe4, 0x3f, 0x34, 0x46, 0xd7, 0xee, 0x0c, 0xd2, 0xcb,
  0x3d, 0x94, 0x29, 0x34, 0x05, 0xb6, 0x47, 0xb3, 0x9f, 0xa3, 0x3b, 0x48,
  0x33, 0x49, 0xb7, 0x31, 0xee, 0xe0, 0xa4, 0xe5, 0x0c, 0x13, 0x39, 0x9a,
  0xe5, 0x25, 0x93, 0x39, 0x1f, 0xe8, 0x19, 0xf3, 0x29, 0xf7, 0x28, 0x27,
  0xf4, 0xc4, 0x09, 0xfc, 0x9f, 0xe7, 0x8b, 0xe3, 0xff, 0x28, 0xcc, 0xde,
  0xd1, 0xd7, 0x1b, 0xfb, 0x03, 0xe7, 0xd6, 0x0d, 0xbf, 0xf4, 0xe9, 0x23,
  0xd1, 0x0f, 0xbe, 0xb7, 0xfd, 0xf4, 0x01, 0x32, 0xbc, 0x94, 0xed, 0x05,
  0x21, 0xf4, 0x2e, 0xdb, 0x06, 0x01, 0xf4, 0x94, 0x29, 0xc3, 0x1b, 0x05,
  0xf3, 0xe1, 0xe0, 0xad, 0x38, 0xf5, 0xdf, 0xe1, 0xd8, 0xfb, 0xd1, 0xf7,
  0x00, 0xe7, 0xdf, 0x20, 0xea, 0xdc, 0x35, 0x18, 0x2d, 0xed, 0xff, 0xf1,
  0xd9, 0xff, 0xf6, 0xb9, 0xb3, 0xbc, 0xb4, 0xfd, 0x24, 0x8f, 0xf3, 0xb6,
  0xdd, 0xff, 0xa0, 0xfd, 0xe9, 0xf2, 0xd5, 0xd8, 0xe3, 0x0e, 0xed, 0xcb,
  0x10, 0xf8, 0x11, 0xdc, 0xf6, 0xcd, 0x16, 0x10, 0xd9, 0xc5, 0xb7, 0x30,
  0xae, 0xd6, 0x15, 0x4f, 0xcb, 0x5b, 0xf3, 0x35, 0xe0, 0x2f, 0xea, 0xe7,
  0xf3, 0xe0, 0xd8, 0xd2, 0xf2, 0xda, 0xf2, 0xe0, 0xd4, 0x07, 0xfe, 0xf2,
  0xc3, 0x4c, 0xd4, 0x0c, 0x0a, 0xce, 0xbc, 0x01, 0x0a, 0xfe, 0x03, 0xe6,
  0xdb, 0xe1, 0xe1, 0x02, 0xca, 0xae, 0x0b, 0x07, 0xf0, 0x19, 0x08, 0x1d,
  0x16, 0xd3, 0x0e, 0x04, 0xc9, 0xc9, 0xf9, 0xa5, 0xef, 0xc5, 0xfd, 0xed,
  0xea, 0xff, 0xea, 0x1d, 0x1a, 0xb7, 0xb7, 0xf5, 0xe9, 0xf2, 0xf1, 0xf2,
  0xeb, 0x18, 0xb8, 0xc2, 0xc0, 0xea, 0x0a, 0x16, 0x11, 0xf9, 0xd9, 0x23,
  0xd5, 0x20, 0xf4, 0xe4, 0x2e, 0x33, 0x18, 0xd9, 0x0e, 0xe6, 0xf6, 0xd8,
  0xf6, 0x9b, 0xf7, 0x0e, 0xd3, 0xd8, 0xbe, 0xc8, 0x4e, 0xec, 0x33, 0xae,
  0x0c, 0xfc, 0xeb, 0xe4, 0xcc, 0xdf, 0x25, 0xec, 0xdf, 0xd3, 0xdf, 0xcb,
  0xba, 0xbe, 0xb8, 0x1d, 0x1c, 0x07, 0xe3, 0xbc, 0xc9, 0x1a, 0x03, 0xaf,
  0xbf, 0xc2, 0x03, 0xee, 0xd6, 0xf1, 0xf9, 0x09, 0xe2, 0x40, 0xd8, 0xc7,
  0xc7, 0xff, 0xc9, 0x1c, 0xd2, 0x0c, 0xfd, 0xe2, 0xf6, 0x7f, 0xf9, 0x5f,
  0x21, 0x16, 0x21, 0xf8, 0xfa, 0xdb, 0xc3, 0xe0, 0xe4, 0xc2, 0x16, 0x22,
  0xea, 0xc0, 0xf2, 0x1d, 0x03, 0x14, 0xfd, 0x1b, 0xba, 0x0a, 0xc5, 0xe3,
  0xe4, 0x0c, 0xc6, 0x02, 0xf3, 0xce, 0xc3, 0xf4, 0x81, 0xe1, 0xbe, 0xa5,
  0x08, 0xd4, 0xf8, 0xeb, 0xc4, 0xd2, 0xcd, 0x13, 0xc1, 0x09, 0x8b, 0xca,
  0xe3, 0x68, 0xd4, 0x5b, 0x05, 0x14, 0xaf, 0x35, 0xf6, 0xd1, 0x23, 0xfd,
  0x64, 0x01, 0xf3, 0xdb, 0x17, 0x34, 0x04, 0xd4, 0xca, 0x39, 0x04, 0x11,
  0x21, 0x32, 0xe9, 0x33, 0x37, 0xdf, 0xc8, 0xb4, 0xc8, 0xff, 0xf7, 0x05,
  0xef, 0xe6, 0xba, 0x11, 0xc1, 0x05, 0x0f, 0xa7, 0x9f, 0x1b, 0xea, 0x9d,
  0x36, 0x13, 0xd0, 0xe2, 0x5c, 0xe0, 0xee, 0x2d, 0x26, 0x29, 0xf7, 0x09,
  0xf0, 0xeb, 0x01, 0x5c, 0x40, 0xe5, 0x01, 0x21, 0x30, 0x16, 0xdf, 0x00,
  0x29, 0x0d, 0xdf, 0xfe, 0xd5, 0x6f, 0xee, 0x25, 0xe2, 0x2e, 0x2c, 0xef,
  0x02, 0x4e, 0xfa, 0xdc, 0xd5, 0x0f, 0xcf, 0x10, 0xc9, 0xf1, 0x9a, 0xe4,
  0xfb, 0x40, 0x31, 0x32, 0xfa, 0x48, 0xe0, 0x64, 0x2d, 0x65, 0x1e, 0x28,
  0x3c, 0x3c, 0xaa, 0x1c, 0x34, 0xc4, 0xdd, 0xf7, 0xe7, 0xd2, 0xc6, 0x0f,
  0xe4, 0x04, 0xca, 0xf9, 0xc7, 0xc2, 0xb9, 0xc7, 0x02, 0xe5, 0xdf, 0xf6,
  0x44, 0x95, 0xb0, 0x1f, 0x50, 0xd9, 0x1c, 0x1b, 0x16, 0xf3, 0xde, 0x23,
  0xad, 0xed, 0x02, 0xf1, 0xd1, 0xd4, 0xd6, 0xf7, 0xbe, 0x8b, 0xee, 0x1c,
  0x9b, 0x88, 0xcf, 0x05, 0x23, 0xd5, 0xca, 0xf7, 0x03, 0x0b, 0x1b, 0x26,
  0xe9, 0x16, 0x08, 0xaa, 0xbb, 0x1b, 0x00, 0xa8, 0x38, 0xa7, 0xe5, 0xcb,
  0xfa, 0x3a, 0x0c, 0xd4, 0x16, 0x34, 0xe7, 0x1a, 0xfc, 0xed, 0x17, 0xe2,
  0x3a, 0x07, 0xa0, 0xdb, 0x14, 0xa3, 0xb3, 0xc2, 0xa7, 0x04, 0x11, 0xf2,
  0xe9, 0xee, 0xe8, 0x5f, 0x8c, 0xeb, 0x3a, 0x39, 0xeb, 0xdb, 0x1e, 0xfd,
  0xe7, 0xef, 0xb8, 0xdc, 0xfc, 0xd0, 0xc2, 0xac, 0x0e, 0x07, 0xda, 0xf8,
  0xc5, 0x12, 0xe2, 0x95, 0x9d, 0x19, 0xd9, 0x94, 0xc2, 0x03, 0x1b, 0xbe,
  0x26, 0xfe, 0xff, 0xff, 0x04, 0x00, 0x00, 0x00, 0x80, 0x00, 0x00, 0x00,
  0x01, 0xf8, 0xff, 0xff, 0xbd, 0xfc, 0xff, 0xff, 0x0a, 0x11, 0x00, 0x00,
  0xb4, 0x0f, 0x00, 0x00, 0x6a, 0x0e, 0x00, 0x00, 0x23, 0x02, 0x00, 0x00,
  0xf6, 0x10, 0x00, 0x00, 0x27, 0x0a, 0x00, 0x00, 0xd9, 0xd5, 0xff, 0xff,
  0x1e, 0xe8, 0xff, 0xff, 0x3c, 0xfa, 0xff, 0xff, 0x9f, 0x16, 0x00, 0x00,
  0x76, 0x02, 0x00, 0x00, 0x0a, 0xe1, 0xff, 0xff, 0x3d, 0xd3, 0xff, 0xff,
  0x69, 0x13, 0x00, 0x00, 0x35, 0x03, 0x00, 0x00, 0x5d, 0x0e, 0x00, 0x00,
  0xe7, 0x08, 0x00, 0x00, 0xf0, 0x04, 0x00, 0x00, 0x1e, 0xe6, 0xff, 0xff,
  0xf8, 0x09, 0x00, 0x00, 0xd9, 0xdd, 0xff, 0xff, 0x9d, 0x0b, 0x00, 0x00,
  0xed, 0xd7, 0xff, 0xff, 0xaf, 0x00, 0x00, 0x00, 0xf1, 0xf4, 0xff, 0xff,
  0x31, 0xf5, 0xff, 0xff, 0x84, 0xff, 0xff, 0xff, 0xd9, 0x04, 0x00, 0x00,
  0xda, 0xf9, 0xff, 0xff, 0x0b, 0xea, 0xff, 0xff, 0xb2, 0xfe, 0xff, 0xff,
  0x04, 0x00, 0x00, 0x00, 0x40, 0x00, 0x00, 0x00, 0x01, 0xe8, 0x7c, 0x35,
  0x0d, 0xc7, 0x1a, 0x68, 0xdd, 0xc8, 0x8f, 0x60, 0x81, 0x36, 0xe6, 0x1c,
  0x94, 0x0e, 0x40, 0x4d, 0x19, 0x06, 0x1f, 0x50, 0x35, 0xb9, 0x1c, 0xb2,
  0xb0, 0x20, 0x1a, 0x45, 0x01, 0x6c, 0xc7, 0xb2, 0x38, 0x69, 0xb1, 0x99,
  0xe4, 0x1b, 0x29, 0xeb, 0x66, 0x33, 0xf7, 0xe5, 0x53, 0xcf, 0xde, 0x81,
  0xf2, 0xae, 0xf4, 0xf0, 0x2f, 0x42, 0xe5, 0x26, 0x2d, 0xee, 0x0b, 0xfa,
  0xfe, 0xfe, 0xff, 0xff, 0x04, 0x00, 0x00, 0x00, 0x08, 0x00, 0x00, 0x00,
  0x48, 0x11, 0x00, 0x00, 0x87, 0x00, 0x00, 0x00, 0x12, 0xff, 0xff, 0xff,
  0x04, 0x00, 0x00, 0x00, 0x08, 0x00, 0x00, 0x00, 0xff, 0xff, 0xff, 0xff,
  0x00, 0x01, 0x00, 0x00, 0x26, 0xff, 0xff, 0xff, 0x04, 0x00, 0x00, 0x00,
  0x10, 0x00, 0x00, 0x00, 0x00, 0x00, 0x00, 0x00, 0x03, 0x00, 0x00, 0x00,
  0x01, 0x00, 0x00, 0x00, 0x02, 0x00, 0x00, 0x00, 0x4c, 0xee, 0xff, 0xff,
  0x50, 0xee, 0xff, 0xff, 0x0f, 0x00, 0x00, 0x00, 0x4d, 0x4c, 0x49, 0x52,
  0x20, 0x43, 0x6f, 0x6e, 0x76, 0x65, 0x72, 0x74, 0x65, 0x64, 0x2e, 0x00,
  0x01, 0x00, 0x00, 0x00, 0x14, 0x00, 0x00, 0x00, 0x00, 0x00, 0x0e, 0x00,
  0x18, 0x00, 0x14, 0x00, 0x10, 0x00, 0x0c, 0x00, 0x08, 0x00, 0x04, 0x00,
  0x0e, 0x00, 0x00, 0x00, 0x14, 0x00, 0x00, 0x00, 0x1c, 0x00, 0x00, 0x00,
  0xb8, 0x02, 0x00, 0x00, 0xbc, 0x02, 0x00, 0x00, 0xc0, 0x02, 0x00, 0x00,
  0x04, 0x00, 0x00, 0x00, 0x6d, 0x61, 0x69, 0x6e, 0x00, 0x00, 0x00, 0x00,
  0x0b, 0x00, 0x00, 0x00, 0x80, 0x02, 0x00, 0x00, 0x24, 0x02, 0x00, 0x00,
  0xc0, 0x01, 0x00, 0x00, 0x7c, 0x01, 0x00, 0x00, 0x38, 0x01, 0x00, 0x00,
  0x10, 0x01, 0x00, 0x00, 0xdc, 0x00, 0x00, 0x00, 0x98, 0x00, 0x00, 0x00,
  0x60, 0x00, 0x00, 0x00, 0x24, 0x00, 0x00, 0x00, 0x04, 0x00, 0x00, 0x00,
  0xb6, 0xfd, 0xff, 0xff, 0x08, 0x00, 0x00, 0x00, 0x0c, 0x00, 0x00, 0x00,
  0x01, 0x00, 0x00, 0x00, 0x15, 0x00, 0x00, 0x00, 0x01, 0x00, 0x00, 0x00,
  0x14, 0x00, 0x00, 0x00, 0x2e, 0xfe, 0xff, 0xff, 0x1c, 0x00, 0x00, 0x00,
  0x00, 0x00, 0x00, 0x09, 0x1c, 0x00, 0x00, 0x00, 0x20, 0x00, 0x00, 0x00,
  0x06, 0x00, 0x00, 0x00, 0x00, 0x00, 0x06, 0x00, 0x08, 0x00, 0x04, 0x00,
  0x06, 0x00, 0x00, 0x00, 0x00, 0x00, 0x80, 0x3f, 0x01, 0x00, 0x00, 0x00,
  0x14, 0x00, 0x00, 0x00, 0x01, 0x00, 0x00, 0x00, 0x13, 0x00, 0x00, 0x00,
  0x66, 0xfe, 0xff, 0xff, 0x14, 0x00, 0x00, 0x00, 0x00, 0x00, 0x00, 0x08,
  0x10, 0x00, 0x00, 0x00, 0x14, 0x00, 0x00, 0x00, 0x05, 0x00, 0x00, 0x00,
  0x40, 0xef, 0xff, 0xff, 0x01, 0x00, 0x00, 0x00, 0x13, 0x00, 0x00, 0x00,
  0x03, 0x00, 0x00, 0x00, 0x12, 0x00, 0x00, 0x00, 0x04, 0x00, 0x00, 0x00,
  0x03, 0x00, 0x00, 0x00, 0x9a, 0xfe, 0xff, 0xff, 0x1c, 0x00, 0x00, 0x00,
  0x00, 0x00, 0x00, 0x08, 0x1c, 0x00, 0x00, 0x00, 0x20, 0x00, 0x00, 0x00,
  0x05, 0x00, 0x00, 0x00, 0x00, 0x00, 0x06, 0x00, 0x08, 0x00, 0x07, 0x00,
  0x06, 0x00, 0x00, 0x00, 0x00, 0x00, 0x00, 0x01, 0x01, 0x00, 0x00, 0x00,
  0x12, 0x00, 0x00, 0x00, 0x03, 0x00, 0x00, 0x00, 0x11, 0x00, 0x00, 0x00,
  0x06, 0x00, 0x00, 0x00, 0x05, 0x00, 0x00, 0x00, 0xda, 0xff, 0xff, 0xff,
  0x0c, 0x00, 0x00, 0x00, 0x10, 0x00, 0x00, 0x00, 0x04, 0x00, 0x00, 0x00,
  0x01, 0x00, 0x00, 0x00, 0x11, 0x00, 0x00, 0x00, 0x02, 0x00, 0x00, 0x00,
  0x10, 0x00, 0x00, 0x00, 0x02, 0x00, 0x00, 0x00, 0x00, 0x00, 0x0a, 0x00,
  0x10, 0x00, 0x0c, 0x00, 0x08, 0x00, 0x04, 0x00, 0x0a, 0x00, 0x00, 0x00,
  0x0c, 0x00, 0x00, 0x00, 0x10, 0x00, 0x00, 0x00, 0x03, 0x00, 0x00, 0x00,
  0x01, 0x00, 0x00, 0x00, 0x10, 0x00, 0x00, 0x00, 0x02, 0x00, 0x00, 0x00,
  0x0f, 0x00, 0x00, 0x00, 0x01, 0x00, 0x00, 0x00, 0x2e, 0xff, 0xff, 0xff,
  0x14, 0x00, 0x00, 0x00, 0x00, 0x00, 0x00, 0x05, 0x24, 0x00, 0x00, 0x00,
  0x28, 0x00, 0x00, 0x00, 0x02, 0x00, 0x00, 0x00, 0x7e, 0xff, 0xff, 0xff,
  0x02, 0x00, 0x00, 0x00, 0x02, 0x00, 0x00, 0x00, 0x02, 0x00, 0x00, 0x00,
  0x02, 0x00, 0x00, 0x00, 0x00, 0x00, 0x00, 0x01, 0x01, 0x00, 0x00, 0x00,
  0x0f, 0x00, 0x00, 0x00, 0x01, 0x00, 0x00, 0x00, 0x0e, 0x00, 0x00, 0x00,
  0x6e, 0xff, 0xff, 0xff, 0x14, 0x00, 0x00, 0x00, 0x00, 0x00, 0x00, 0x01,
  0x1c, 0x00, 0x00, 0x00, 0x20, 0x00, 0x00, 0x00, 0x01, 0x00, 0x00, 0x00,
  0x60, 0xff, 0xff, 0xff, 0x00, 0x00, 0x00, 0x01, 0x01, 0x00, 0x00, 0x00,
  0x01, 0x00, 0x00, 0x00, 0x01, 0x00, 0x00, 0x00, 0x0e, 0x00, 0x00, 0x00,
  0x03, 0x00, 0x00, 0x00, 0x0d, 0x00, 0x00, 0x00, 0x08, 0x00, 0x00, 0x00,
  0x07, 0x00, 0x00, 0x00, 0xae, 0xff, 0xff, 0xff, 0x24, 0x00, 0x00, 0x00,
  0x00, 0x00, 0x00, 0x05, 0x34, 0x00, 0x00, 0x00, 0x38, 0x00, 0x00, 0x00,
  0x02, 0x00, 0x00, 0x00, 0x00, 0x00, 0x0e, 0x00, 0x18, 0x00, 0x17, 0x00,
  0x10, 0x00, 0x0c, 0x00, 0x08, 0x00, 0x04, 0x00, 0x0e, 0x00, 0x00, 0x00,
  0x02, 0x00, 0x00, 0x00, 0x02, 0x00, 0x00, 0x00, 0x02, 0x00, 0x00, 0x00,
  0x02, 0x00, 0x00, 0x00, 0x00, 0x00, 0x00, 0x01, 0x01, 0x00, 0x00, 0x00,
  0x0d, 0x00, 0x00, 0x00, 0x01, 0x00, 0x00, 0x00, 0x0c, 0x00, 0x00, 0x00,
  0x00, 0x00, 0x0e, 0x00, 0x18, 0x00, 0x14, 0x00, 0x10, 0x00, 0x0c, 0x00,
  0x0b, 0x00, 0x04, 0x00, 0x0e, 0x00, 0x00, 0x00, 0x20, 0x00, 0x00, 0x00,
  0x00, 0x00, 0x00, 0x01, 0x28, 0x00, 0x00, 0x00, 0x2c, 0x00, 0x00, 0x00,
  0x01, 0x00, 0x00, 0x00, 0x0c, 0x00, 0x10, 0x00, 0x00, 0x00, 0x0c, 0x00,
  0x08, 0x00, 0x07, 0x00, 0x0c, 0x00, 0x00, 0x00, 0x00, 0x00, 0x00, 0x01,
  0x01, 0x00, 0x00, 0x00, 0x01, 0x00, 0x00, 0x00, 0x01, 0x00, 0x00, 0x00,
  0x0c, 0x00, 0x00, 0x00, 0x03, 0x00, 0x00, 0x00, 0x0b, 0x00, 0x00, 0x00,
  0x0a, 0x00, 0x00, 0x00, 0x09, 0x00, 0x00, 0x00, 0x00, 0x00, 0x0a, 0x00,
  0x0c, 0x00, 0x00, 0x00, 0x08, 0x00, 0x04, 0x00, 0x0a, 0x00, 0x00, 0x00,
  0x08, 0x00, 0x00, 0x00, 0x0c, 0x00, 0x00, 0x00, 0x01, 0x00, 0x00, 0x00,
  0x0b, 0x00, 0x00, 0x00, 0x01, 0x00, 0x00, 0x00, 0x00, 0x00, 0x00, 0x00,
  0x01, 0x00, 0x00, 0x00, 0x15, 0x00, 0x00, 0x00, 0x01, 0x00, 0x00, 0x00,
  0x00, 0x00, 0x00, 0x00, 0x16, 0x00, 0x00, 0x00, 0xe4, 0x0e, 0x00, 0x00,
  0x88, 0x0e, 0x00, 0x00, 0x48, 0x0e, 0x00, 0x00, 0xdc, 0x0d, 0x00, 0x00,
  0x68, 0x0d, 0x00, 0x00, 0x94, 0x0b, 0x00, 0x00, 0xb8, 0x09, 0x00, 0x00,
  0xa4, 0x08, 0x00, 0x00, 0x80, 0x07, 0x00, 0x00, 0xcc, 0x06, 0x00, 0x00,
  0x08, 0x06, 0x00, 0x00, 0x9c, 0x05, 0x00, 0x00, 0xe0, 0x04, 0x00, 0x00,
  0x64, 0x04, 0x00, 0x00, 0xa8, 0x03, 0x00, 0x00, 0x24, 0x03, 0x00, 0x00,
  0xa0, 0x02, 0x00, 0x00, 0x1c, 0x02, 0x00, 0x00, 0x68, 0x01, 0x00, 0x00,
  0xcc, 0x00, 0x00, 0x00, 0x68, 0x00, 0x00, 0x00, 0x04, 0x00, 0x00, 0x00,
  0x8a, 0xf1, 0xff, 0xff, 0x00, 0x00, 0x00, 0x01, 0x14, 0x00, 0x00, 0x00,
  0x30, 0x00, 0x00, 0x00, 0x16, 0x00, 0x00, 0x00, 0x00, 0x00, 0x00, 0x03,
  0x3c, 0x00, 0x00, 0x00, 0x74, 0xf1, 0xff, 0xff, 0x08, 0x00, 0x00, 0x00,
  0x10, 0x00, 0x00, 0x00, 0x01, 0x00, 0x00, 0x00, 0x00, 0x00, 0x00, 0x00,
  0x00, 0x00, 0x00, 0x00, 0x01, 0x00, 0x00, 0x00, 0x00, 0x00, 0x80, 0x3b,
  0x11, 0x00, 0x00, 0x00, 0x50, 0x61, 0x72, 0x74, 0x69, 0x74, 0x69, 0x6f,
  0x6e, 0x65, 0x64, 0x43, 0x61, 0x6c, 0x6c, 0x3a, 0x30, 0x00, 0x00, 0x00,
  0x02, 0x00, 0x00, 0x00, 0x01, 0x00, 0x00, 0x00, 0x02, 0x00, 0x00, 0x00,
  0xea, 0xf1, 0xff, 0xff, 0x00, 0x00, 0x00, 0x01, 0x14, 0x00, 0x00, 0x00,
  0x30, 0x00, 0x00, 0x00, 0x15, 0x00, 0x00, 0x00, 0x00, 0x00, 0x00, 0x09,
  0x3c, 0x00, 0x00, 0x00, 0xd4, 0xf1, 0xff, 0xff, 0x08, 0x00, 0x00, 0x00,
  0x10, 0x00, 0x00, 0x00, 0x01, 0x00, 0x00, 0x00, 0x80, 0xff, 0xff, 0xff,
  0xff, 0xff, 0xff, 0xff, 0x01, 0x00, 0x00, 0x00, 0x00, 0x00, 0x80, 0x3b,
  0x12, 0x00, 0x00, 0x00, 0x50, 0x61, 0x72, 0x74, 0x69, 0x74, 0x69, 0x6f,
  0x6e, 0x65, 0x64, 0x43, 0x61, 0x6c, 0x6c, 0x3a, 0x30, 0x31, 0x00, 0x00,
  0x02, 0x00, 0x00, 0x00, 0x01, 0x00, 0x00, 0x00, 0x02, 0x00, 0x00, 0x00,
  0x4a, 0xf2, 0xff, 0xff, 0x00, 0x00, 0x00, 0x01, 0x14, 0x00, 0x00, 0x00,
  0x34, 0x00, 0x00, 0x00, 0x14, 0x00, 0x00, 0x00, 0x00, 0x00, 0x00, 0x09,
  0x74, 0x00, 0x00, 0x00, 0x34, 0xf2, 0xff, 0xff, 0x08, 0x00, 0x00, 0x00,
  0x14, 0x00, 0x00, 0x00, 0x01, 0x00, 0x00, 0x00, 0xf9, 0xff, 0xff, 0xff,
  0xff, 0xff, 0xff, 0xff, 0x00, 0x00, 0x00, 0x00, 0x01, 0x00, 0x00, 0x00,
  0x06, 0xbc, 0x61, 0x3d, 0x46, 0x00, 0x00, 0x00, 0x6d, 0x6f, 0x64, 0x65,
  0x6c, 0x5f, 0x32, 0x2f, 0x74, 0x66, 0x2e, 0x6c, 0x69, 0x6e, 0x61, 0x6c,
  0x67, 0x2e, 0x6d, 0x61, 0x74, 0x6d, 0x75, 0x6c, 0x5f, 0x31, 0x2f, 0x4d,
  0x61, 0x74, 0x4d, 0x75, 0x6c, 0x3b, 0x6d, 0x6f, 0x64, 0x65, 0x6c, 0x5f,
  0x32, 0x2f, 0x74, 0x66, 0x2e, 0x5f, 0x5f, 0x6f, 0x70, 0x65, 0x72, 0x61,
  0x74, 0x6f, 0x72, 0x73, 0x5f, 0x5f, 0x2e, 0x61, 0x64, 0x64, 0x5f, 0x31,
  0x2f, 0x41, 0x64, 0x64, 0x56, 0x32, 0x00, 0x00, 0x02, 0x00, 0x00, 0x00,
  0x01, 0x00, 0x00, 0x00, 0x02, 0x00, 0x00, 0x00, 0xe2, 0xf2, 0xff, 0xff,
  0x00, 0x00, 0x00, 0x01, 0x14, 0x00, 0x00, 0x00, 0x34, 0x00, 0x00, 0x00,
  0x13, 0x00, 0x00, 0x00, 0x00, 0x00, 0x00, 0x09, 0x8c, 0x00, 0x00, 0x00,
  0xcc, 0xf2, 0xff, 0xff, 0x08, 0x00, 0x00, 0x00, 0x14, 0x00, 0x00, 0x00,
  0x01, 0x00, 0x00, 0x00, 0x80, 0xff, 0xff, 0xff, 0xff, 0xff, 0xff, 0xff,
  0x00, 0x00, 0x00, 0x00, 0x01, 0x00, 0x00, 0x00, 0xeb, 0x94, 0x9d, 0x3c,
  0x5c, 0x00, 0x00, 0x00, 0x6d, 0x6f, 0x64, 0x65, 0x6c, 0x5f, 0x32, 0x2f,
  0x74, 0x66, 0x2e, 0x6c, 0x69, 0x6e, 0x61, 0x6c, 0x67, 0x2e, 0x6d, 0x61,
  0x74, 0x6d, 0x75, 0x6c, 0x2f, 0x4d, 0x61, 0x74, 0x4d, 0x75, 0x6c, 0x3b,
  0x6d, 0x6f, 0x64, 0x65, 0x6c, 0x5f, 0x32, 0x2f, 0x74, 0x66, 0x2e, 0x6e,
  0x6e, 0x2e, 0x72, 0x65, 0x6c, 0x75, 0x5f, 0x32, 0x2f, 0x52, 0x65, 0x6c,
  0x75, 0x3b, 0x6d, 0x6f, 0x64, 0x65, 0x6c, 0x5f, 0x32, 0x2f, 0x74, 0x66,
  0x2e, 0x5f, 0x5f, 0x6f, 0x70, 0x65, 0x72, 0x61, 0x74, 0x6f, 0x72, 0x73,
  0x5f, 0x5f, 0x2e, 0x61, 0x64, 0x64, 0x2f, 0x41, 0x64, 0x64, 0x56, 0x32,
  0x00, 0x00, 0x00, 0x00, 0x02, 0x00, 0x00, 0x00, 0x01, 0x00, 0x00, 0x00,
  0x20, 0x00, 0x00, 0x00, 0x92, 0xf3, 0xff, 0xff, 0x00, 0x00, 0x00, 0x01,
  0x14, 0x00, 0x00, 0x00, 0x30, 0x00, 0x00, 0x00, 0x12, 0x00, 0x00, 0x00,
  0x00, 0x00, 0x00, 0x09, 0x5c, 0x00, 0x00, 0x00, 0x7c, 0xf3, 0xff, 0xff,
  0x08, 0x00, 0x00, 0x00, 0x10, 0x00, 0x00, 0x00, 0x01, 0x00, 0x00, 0x00,
  0x80, 0xff, 0xff, 0xff, 0xff, 0xff, 0xff, 0xff, 0x01, 0x00, 0x00, 0x00,
  0x9c, 0x57, 0x20, 0x3c, 0x32, 0x00, 0x00, 0x00, 0x6d, 0x6f, 0x64, 0x65,
  0x6c, 0x5f, 0x32, 0x2f, 0x66, 0x6c, 0x61, 0x74, 0x74, 0x65, 0x6e, 0x2f,
  0x52, 0x65, 0x73, 0x68, 0x61, 0x70, 0x65, 0x3b, 0x6d, 0x6f, 0x64, 0x65,
  0x6c, 0x5f, 0x32, 0x2f, 0x74, 0x66, 0x2e, 0x72, 0x65, 0x73, 0x68, 0x61,
  0x70, 0x65, 0x2f, 0x52, 0x65, 0x73, 0x68, 0x61, 0x70, 0x65, 0x00, 0x00,
  0x02, 0x00, 0x00, 0x00, 0x01, 0x00, 0x00, 0x00, 0x00, 0x01, 0x00, 0x00,
  0x12, 0xf4, 0xff, 0xff, 0x00, 0x00, 0x00, 0x01, 0x14, 0x00, 0x00, 0x00,
  0x30, 0x00, 0x00, 0x00, 0x11, 0x00, 0x00, 0x00, 0x00, 0x00, 0x00, 0x09,
  0x54, 0x00, 0x00, 0x00, 0xfc, 0xf3, 0xff, 0xff, 0x08, 0x00, 0x00, 0x00,
  0x10, 0x00, 0x00, 0x00, 0x01, 0x00, 0x00, 0x00, 0x80, 0xff, 0xff, 0xff,
  0xff, 0xff, 0xff, 0xff, 0x01, 0x00, 0x00, 0x00, 0x9c, 0x57, 0x20, 0x3c,
  0x2a, 0x00, 0x00, 0x00, 0x6d, 0x6f, 0x64, 0x65, 0x6c, 0x5f, 0x32, 0x2f,
  0x74, 0x66, 0x2e, 0x63, 0x6f, 0x6d, 0x70, 0x61, 0x74, 0x2e, 0x76, 0x31,
  0x2e, 0x74, 0x72, 0x61, 0x6e, 0x73, 0x70, 0x6f, 0x73, 0x65, 0x5f, 0x33,
  0x2f, 0x74, 0x72, 0x61, 0x6e, 0x73, 0x70, 0x6f, 0x73, 0x65, 0x00, 0x00,
  0x04, 0x00, 0x00, 0x00, 0x01, 0x00, 0x00, 0x00, 0x10, 0x00, 0x00, 0x00,
  0x04, 0x00, 0x00, 0x00, 0x04, 0x00, 0x00, 0x00, 0x92, 0xf4, 0xff, 0xff,
  0x00, 0x00, 0x00, 0x01, 0x14, 0x00, 0x00, 0x00, 0x34, 0x00, 0x00, 0x00,
  0x10, 0x00, 0x00, 0x00, 0x00, 0x00, 0x00, 0x09, 0x54, 0x00, 0x00, 0x00,
  0x7c, 0xf4, 0xff, 0xff, 0x08, 0x00, 0x00, 0x00, 0x14, 0x00, 0x00, 0x00,
  0x01, 0x00, 0x00, 0x00, 0x80, 0xff, 0xff, 0xff, 0xff, 0xff, 0xff, 0xff,
  0x00, 0x00, 0x00, 0x00, 0x01, 0x00, 0x00, 0x00, 0x9c, 0x57, 0x20, 0x3c,
  0x24, 0x00, 0x00, 0x00, 0x6d, 0x6f, 0x64, 0x65, 0x6c, 0x5f, 0x32, 0x2f,
  0x74, 0x66, 0x2e, 0x6e, 0x6e, 0x2e, 0x6d, 0x61, 0x78, 0x5f, 0x70, 0x6f,
  0x6f, 0x6c, 0x32, 0x64, 0x5f, 0x31, 0x2f, 0x4d, 0x61, 0x78, 0x50, 0x6f,
  0x6f, 0x6c, 0x32, 0x64, 0x00, 0x00, 0x00, 0x00, 0x04, 0x00, 0x00, 0x00,
  0x01, 0x00, 0x00, 0x00, 0x04, 0x00, 0x00, 0x00, 0x04, 0x00, 0x00, 0x00,
  0x10, 0x00, 0x00, 0x00, 0x12, 0xf5, 0xff, 0xff, 0x00, 0x00, 0x00, 0x01,
  0x14, 0x00, 0x00, 0x00, 0x30, 0x00, 0x00, 0x00, 0x0f, 0x00, 0x00, 0x00,
  0x00, 0x00, 0x00, 0x09, 0x8c, 0x00, 0x00, 0x00, 0xfc, 0xf4, 0xff, 0xff,
  0x08, 0x00, 0x00, 0x00, 0x10, 0x00, 0x00, 0x00, 0x01, 0x00, 0x00, 0x00,
  0x80, 0xff, 0xff, 0xff, 0xff, 0xff, 0xff, 0xff, 0x01, 0x00, 0x00, 0x00,
  0x9c, 0x57, 0x20, 0x3c, 0x63, 0x00, 0x00, 0x00, 0x6d, 0x6f, 0x64, 0x65,
  0x6c, 0x5f, 0x32, 0x2f, 0x74, 0x66, 0x2e, 0x6e, 0x6e, 0x2e, 0x72, 0x65,
  0x6c, 0x75, 0x5f, 0x31, 0x2f, 0x52, 0x65, 0x6c, 0x75, 0x3b, 0x6d, 0x6f,
  0x64, 0x65, 0x6c, 0x5f, 0x32, 0x2f, 0x74, 0x66, 0x2e, 0x6d, 0x61, 0x74,
  0x68, 0x2e, 0x61, 0x64, 0x64, 0x5f, 0x32, 0x2f, 0x41, 0x64, 0x64, 0x3b,
  0x6d, 0x6f, 0x64, 0x65, 0x6c, 0x5f, 0x32, 0x2f, 0x74, 0x66, 0x2e, 0x6e,
  0x6e, 0x2e, 0x63, 0x6f, 0x6e, 0x76, 0x6f, 0x6c, 0x75, 0x74, 0x69, 0x6f,
  0x6e, 0x5f, 0x32, 0x2f, 0x63, 0x6f, 0x6e, 0x76, 0x6f, 0x6c, 0x75, 0x74,
  0x69, 0x6f, 0x6e, 0x3b, 0x43, 0x6f, 0x6e, 0x73, 0x74, 0x5f, 0x36, 0x00,
  0x04, 0x00, 0x00, 0x00, 0x01, 0x00, 0x00, 0x00, 0x08, 0x00, 0x00, 0x00,
  0x08, 0x00, 0x00, 0x00, 0x10, 0x00, 0x00, 0x00, 0xca, 0xf5, 0xff, 0xff,
  0x00, 0x00, 0x00, 0x01, 0x14, 0x00, 0x00, 0x00, 0x30, 0x00, 0x00, 0x00,
  0x0e, 0x00, 0x00, 0x00, 0x00, 0x00, 0x00, 0x09, 0x4c, 0x00, 0x00, 0x00,
  0xb4, 0xf5, 0xff, 0xff, 0x08, 0x00, 0x00, 0x00, 0x10, 0x00, 0x00, 0x00,
  0x01, 0x00, 0x00, 0x00, 0x80, 0xff, 0xff, 0xff, 0xff, 0xff, 0xff, 0xff,
  0x01, 0x00, 0x00, 0x00, 0x56, 0x97, 0x3b, 0x3c, 0x22, 0x00, 0x00, 0x00,
  0x6d, 0x6f, 0x64, 0x65, 0x6c, 0x5f, 0x32, 0x2f, 0x74, 0x66, 0x2e, 0x6e,
  0x6e, 0x2e, 0x6d, 0x61, 0x78, 0x5f, 0x70, 0x6f, 0x6f, 0x6c, 0x32, 0x64,
  0x2f, 0x4d, 0x61, 0x78, 0x50, 0x6f, 0x6f, 0x6c, 0x32, 0x64, 0x00, 0x00,
  0x04, 0x00, 0x00, 0x00, 0x01, 0x00, 0x00, 0x00, 0x08, 0x00, 0x00, 0x00,
  0x08, 0x00, 0x00, 0x00, 0x08, 0x00, 0x00, 0x00, 0x42, 0xf6, 0xff, 0xff,
  0x00, 0x00, 0x00, 0x01, 0x14, 0x00, 0x00, 0x00, 0x34, 0x00, 0x00, 0x00,
  0x0d, 0x00, 0x00, 0x00, 0x00, 0x00, 0x00, 0x09, 0x8c, 0x00, 0x00, 0x00,
  0x2c, 0xf6, 0xff, 0xff, 0x08, 0x00, 0x00, 0x00, 0x14, 0x00, 0x00, 0x00,
  0x01, 0x00, 0x00, 0x00, 0x80, 0xff, 0xff, 0xff, 0xff, 0xff, 0xff, 0xff,
  0x00, 0x00, 0x00, 0x00, 0x01, 0x00, 0x00, 0x00, 0x56, 0x97, 0x3b, 0x3c,
  0x5e, 0x00, 0x00, 0x00, 0x6d, 0x6f, 0x64, 0x65, 0x6c, 0x5f, 0x32, 0x2f,
  0x74, 0x66, 0x2e, 0x6e, 0x6e, 0x2e, 0x72, 0x65, 0x6c, 0x75, 0x2f, 0x52,
  0x65, 0x6c, 0x75, 0x3b, 0x6d, 0x6f, 0x64, 0x65, 0x6c, 0x5f, 0x32, 0x2f,
  0x74, 0x66, 0x2e, 0x6d, 0x61, 0x74, 0x68, 0x2e, 0x61, 0x64, 0x64, 0x2f,
  0x41, 0x64, 0x64, 0x3b, 0x6d, 0x6f, 0x64, 0x65, 0x6c, 0x5f, 0x32, 0x2f,
  0x74, 0x66, 0x2e, 0x6e, 0x6e, 0x2e, 0x63, 0x6f, 0x6e, 0x76, 0x6f, 0x6c,
  0x75, 0x74, 0x69, 0x6f, 0x6e, 0x2f, 0x63, 0x6f, 0x6e, 0x76, 0x6f, 0x6c,
  0x75, 0x74, 0x69, 0x6f, 0x6e, 0x3b, 0x43, 0x6f, 0x6e, 0x73, 0x74, 0x5f,
  0x38, 0x31, 0x00, 0x00, 0x04, 0x00, 0x00, 0x00, 0x01, 0x00, 0x00, 0x00,
  0x10, 0x00, 0x00, 0x00, 0x10, 0x00, 0x00, 0x00, 0x08, 0x00, 0x00, 0x00,
  0xfa, 0xf6, 0xff, 0xff, 0x00, 0x00, 0x00, 0x01, 0x14, 0x00, 0x00, 0x00,
  0x34, 0x00, 0x00, 0x00, 0x0c, 0x00, 0x00, 0x00, 0x00, 0x00, 0x00, 0x09,
  0x3c, 0x00, 0x00, 0x00, 0xe4, 0xf6, 0xff, 0xff, 0x08, 0x00, 0x00, 0x00,
  0x14, 0x00, 0x00, 0x00, 0x01, 0x00, 0x00, 0x00, 0x01, 0x00, 0x00, 0x00,
  0x00, 0x00, 0x00, 0x00, 0x00, 0x00, 0x00, 0x00, 0x01, 0x00, 0x00, 0x00,
  0x32, 0x9a, 0x83, 0x3c, 0x0c, 0x00, 0x00, 0x00, 0x74, 0x66, 0x6c, 0x2e,
  0x71, 0x75, 0x61, 0x6e, 0x74, 0x69, 0x7a, 0x65, 0x00, 0x00, 0x00, 0x00,
  0x04, 0x00, 0x00, 0x00, 0x01, 0x00, 0x00, 0x00, 0x10, 0x00, 0x00, 0x00,
  0x10, 0x00, 0x00, 0x00, 0x03, 0x00, 0x00, 0x00, 0x62, 0xf7, 0xff, 0xff,
  0x00, 0x00, 0x00, 0x01, 0x14, 0x00, 0x00, 0x00, 0x88, 0x00, 0x00, 0x00,
  0x0b, 0x00, 0x00, 0x00, 0x00, 0x00, 0x00, 0x09, 0x94, 0x00, 0x00, 0x00,
  0x4c, 0xf7, 0xff, 0xff, 0x08, 0x00, 0x00, 0x00, 0x4c, 0x00, 0x00, 0x00,
  0x08, 0x00, 0x00, 0x00, 0x00, 0x00, 0x00, 0x00, 0x00, 0x00, 0x00, 0x00,
  0x00, 0x00, 0x00, 0x00, 0x00, 0x00, 0x00, 0x00, 0x00, 0x00, 0x00, 0x00,
  0x00, 0x00, 0x00, 0x00, 0x00, 0x00, 0x00, 0x00, 0x00, 0x00, 0x00, 0x00,
  0x00, 0x00, 0x00, 0x00, 0x00, 0x00, 0x00, 0x00, 0x00, 0x00, 0x00, 0x00,
  0x00, 0x00, 0x00, 0x00, 0x00, 0x00, 0x00, 0x00, 0x00, 0x00, 0x00, 0x00,
  0x00, 0x00, 0x00, 0x00, 0x00, 0x00, 0x00, 0x00, 0x00, 0x00, 0x00, 0x00,
  0x08, 0x00, 0x00, 0x00, 0x3d, 0xd2, 0x14, 0x3b, 0xf2, 0x2d, 0x23, 0x3b,
  0x5d, 0xe2, 0x35, 0x3b, 0x55, 0x73, 0x1c, 0x3b, 0x57, 0xf7, 0x14, 0x3b,
  0x33, 0x28, 0x36, 0x3b, 0x10, 0x22, 0x26, 0x3b, 0x48, 0xe7, 0xe8, 0x3a,
  0x12, 0x00, 0x00, 0x00, 0x74, 0x66, 0x6c, 0x2e, 0x70, 0x73, 0x65, 0x75,
  0x64, 0x6f, 0x5f, 0x71, 0x63, 0x6f, 0x6e, 0x73, 0x74, 0x37, 0x00, 0x00,
  0x04, 0x00, 0x00, 0x00, 0x08, 0x00, 0x00, 0x00, 0x03, 0x00, 0x00, 0x00,
  0x03, 0x00, 0x00, 0x00, 0x03, 0x00, 0x00, 0x00, 0x22, 0xf8, 0xff, 0xff,
  0x00, 0x00, 0x00, 0x01, 0x14, 0x00, 0x00, 0x00, 0x84, 0x00, 0x00, 0x00,
  0x0a, 0x00, 0x00, 0x00, 0x00, 0x00, 0x00, 0x02, 0x90, 0x00, 0x00, 0x00,
  0x0c, 0xf8, 0xff, 0xff, 0x08, 0x00, 0x00, 0x00, 0x48, 0x00, 0x00, 0x00,
  0x08, 0x00, 0x00, 0x00, 0x00, 0x00, 0x00, 0x00, 0x00, 0x00, 0x00, 0x00,
  0x00, 0x00, 0x00, 0x00, 0x00, 0x00, 0x00, 0x00, 0x00, 0x00, 0x00, 0x00,
  0x00, 0x00, 0x00, 0x00, 0x00, 0x00, 0x00, 0x00, 0x00, 0x00, 0x00, 0x00,
  0x00, 0x00, 0x00, 0x00, 0x00, 0x00, 0x00, 0x00, 0x00, 0x00, 0x00, 0x00,
  0x00, 0x00, 0x00, 0x00, 0x00, 0x00, 0x00, 0x00, 0x00, 0x00, 0x00, 0x00,
  0x00, 0x00, 0x00, 0x00, 0x00, 0x00, 0x00, 0x00, 0x08, 0x00, 0x00, 0x00,
  0x72, 0x02, 0x19, 0x38, 0x99, 0xc5, 0x27, 0x38, 0xc7, 0x00, 0x3b, 0x38,
  0x81, 0xda, 0x20, 0x38, 0x97, 0x28, 0x19, 0x38, 0x94, 0x48, 0x3b, 0x38,
  0xfe, 0xce, 0x2a, 0x38, 0x45, 0x75, 0xef, 0x37, 0x12, 0x00, 0x00, 0x00,
  0x74, 0x66, 0x6c, 0x2e, 0x70, 0x73, 0x65, 0x75, 0x64, 0x6f, 0x5f, 0x71,
  0x63, 0x6f, 0x6e, 0x73, 0x74, 0x36, 0x00, 0x00, 0x01, 0x00, 0x00, 0x00,
  0x08, 0x00, 0x00, 0x00, 0xd2, 0xf8, 0xff, 0xff, 0x00, 0x00, 0x00, 0x01,
  0x14, 0x00, 0x00, 0x00, 0xe8, 0x00, 0x00, 0x00, 0x09, 0x00, 0x00, 0x00,
  0x00, 0x00, 0x00, 0x09, 0xf4, 0x00, 0x00, 0x00, 0xbc, 0xf8, 0xff, 0xff,
  0x08, 0x00, 0x00, 0x00, 0x8c, 0x00, 0x00, 0x00, 0x10, 0x00, 0x00, 0x00,
  0x00, 0x00, 0x00, 0x00, 0x00, 0x00, 0x00, 0x00, 0x00, 0x00, 0x00, 0x00,
  0x00, 0x00, 0x00, 0x00, 0x00, 0x00, 0x00, 0x00, 0x00, 0x00, 0x00, 0x00,
  0x00, 0x00, 0x00, 0x00, 0x00, 0x00, 0x00, 0x00, 0x00, 0x00, 0x00, 0x00,
  0x00, 0x00, 0x00, 0x00, 0x00, 0x00, 0x00, 0x00, 0x00, 0x00, 0x00, 0x00,
  0x00, 0x00, 0x00, 0x00, 0x00, 0x00, 0x00, 0x00, 0x00, 0x00, 0x00, 0x00,
  0x00, 0x00, 0x00, 0x00, 0x00, 0x00, 0x00, 0x00, 0x00, 0x00, 0x00, 0x00,
  0x00, 0x00, 0x00, 0x00, 0x00, 0x00, 0x00, 0x00, 0x00, 0x00, 0x00, 0x00,
  0x00, 0x00, 0x00, 0x00, 0x00, 0x00, 0x00, 0x00, 0x00, 0x00, 0x00, 0x00,
  0x00, 0x00, 0x00, 0x00, 0x00, 0x00, 0x00, 0x00, 0x00, 0x00, 0x00, 0x00,
  0x00, 0x00, 0x00, 0x00, 0x00, 0x00, 0x00, 0x00, 0x00, 0x00, 0x00, 0x00,
  0x00, 0x00, 0x00, 0x00, 0x00, 0x00, 0x00, 0x00, 0x00, 0x00, 0x00, 0x00,
  0x10, 0x00, 0x00, 0x00, 0x45, 0x9a, 0x49, 0x3b, 0x22, 0x5e, 0x3a, 0x3b,
  0x1b, 0xb9, 0x2e, 0x3b, 0x49, 0xae, 0x04, 0x3b, 0xa2, 0x41, 0x1c, 0x3b,
  0xd4, 0xa0, 0x12, 0x3b, 0xb1, 0x86, 0x3a, 0x3b, 0x9f, 0xf5, 0x59, 0x3b,
  0x41, 0xd8, 0x61, 0x3b, 0x76, 0x23, 0x2e, 0x3b, 0xef, 0x53, 0x44, 0x3b,
  0xa6, 0xbd, 0x76, 0x3b, 0xd8, 0x33, 0x4b, 0x3b, 0xf2, 0x7c, 0x15, 0x3b,
  0xf9, 0xaf, 0xa3, 0x3b, 0x5a, 0x24, 0x30, 0x3b, 0x12, 0x00, 0x00, 0x00,
  0x74, 0x66, 0x6c, 0x2e, 0x70, 0x73, 0x65, 0x75, 0x64, 0x6f, 0x5f, 0x71,
  0x63, 0x6f, 0x6e, 0x73, 0x74, 0x35, 0x00, 0x00, 0x04, 0x00, 0x00, 0x00,
  0x10, 0x00, 0x00, 0x00, 0x03, 0x00, 0x00, 0x00, 0x03, 0x00, 0x00, 0x00,
  0x08, 0x00, 0x00, 0x00, 0xf2, 0xf9, 0xff, 0xff, 0x00, 0x00, 0x00, 0x01,
  0x14, 0x00, 0x00, 0x00, 0xe4, 0x00, 0x00, 0x00, 0x08, 0x00, 0x00, 0x00,
  0x00, 0x00, 0x00, 0x02, 0xf0, 0x00, 0x00, 0x00, 0xdc, 0xf9, 0xff, 0xff,
  0x08, 0x00, 0x00, 0x00, 0x88, 0x00, 0x00, 0x00, 0x10, 0x00, 0x00, 0x00,
  0x00, 0x00, 0x00, 0x00, 0x00, 0x00, 0x00, 0x00, 0x00, 0x00, 0x00, 0x00,
  0x00, 0x00, 0x00, 0x00, 0x00, 0x00, 0x00, 0x00, 0x00, 0x00, 0x00, 0x00,
  0x00, 0x00, 0x00, 0x00, 0x00, 0x00, 0x00, 0x00, 0x00, 0x00, 0x00, 0x00,
  0x00, 0x00, 0x00, 0x00, 0x00, 0x00, 0x00, 0x00, 0x00, 0x00, 0x00, 0x00,
  0x00, 0x00, 0x00, 0x00, 0x00, 0x00, 0x00, 0x00, 0x00, 0x00, 0x00, 0x00,
  0x00, 0x00, 0x00, 0x00, 0x00, 0x00, 0x00, 0x00, 0x00, 0x00, 0x00, 0x00,
  0x00, 0x00, 0x00, 0x00, 0x00, 0x00, 0x00, 0x00, 0x00, 0x00, 0x00, 0x00,
  0x00, 0x00, 0x00, 0x00, 0x00, 0x00, 0x00, 0x00, 0x00, 0x00, 0x00, 0x00,
  0x00, 0x00, 0x00, 0x00, 0x00, 0x00, 0x00, 0x00, 0x00, 0x00, 0x00, 0x00,
  0x00, 0x00, 0x00, 0x00, 0x00, 0x00, 0x00, 0x00, 0x00, 0x00, 0x00, 0x00,
  0x00, 0x00, 0x00, 0x00, 0x00, 0x00, 0x00, 0x00, 0x10, 0x00, 0x00, 0x00,
  0xde, 0xba, 0x13, 0x38, 0xef, 0x90, 0x08, 0x38, 0x81, 0x08, 0x00, 0x38,
  0x7d, 0x73, 0xc2, 0x37, 0xa1, 0x00, 0xe5, 0x37, 0x52, 0xe4, 0xd6, 0x37,
  0xa7, 0xae, 0x08, 0x38, 0x44, 0xb7, 0x1f, 0x38, 0x7a, 0x7e, 0x25, 0x38,
  0xb1, 0x35, 0xff, 0x37, 0x5f, 0xdd, 0x0f, 0x38, 0x65, 0xce, 0x34, 0x38,
  0xff, 0xe6, 0x14, 0x38, 0x47, 0x15, 0xdb, 0x37, 0x9d, 0xe4, 0x6f, 0x38,
  0xae, 0x12, 0x01, 0x38, 0x12, 0x00, 0x00, 0x00, 0x74, 0x66, 0x6c, 0x2e,
  0x70, 0x73, 0x65, 0x75, 0x64, 0x6f, 0x5f, 0x71, 0x63, 0x6f, 0x6e, 0x73,
  0x74, 0x34, 0x00, 0x00, 0x01, 0x00, 0x00, 0x00, 0x10, 0x00, 0x00, 0x00,
  0x02, 0xfb, 0xff, 0xff, 0x00, 0x00, 0x00, 0x01, 0x14, 0x00, 0x00, 0x00,
  0xa8, 0x01, 0x00, 0x00, 0x07, 0x00, 0x00, 0x00, 0x00, 0x00, 0x00, 0x09,
  0xb4, 0x01, 0x00, 0x00, 0xec, 0xfa, 0xff, 0xff, 0x08, 0x00, 0x00, 0x00,
  0x0c, 0x01, 0x00, 0x00, 0x20, 0x00, 0x00, 0x00, 0x00, 0x00, 0x00, 0x00,
  0x00, 0x00, 0x00, 0x00, 0x00, 0x00, 0x00, 0x00, 0x00, 0x00, 0x00, 0x00,
  0x00, 0x00, 0x00, 0x00, 0x00, 0x00, 0x00, 0x00, 0x00, 0x00, 0x00, 0x00,
  0x00, 0x00, 0x00, 0x00, 0x00, 0x00, 0x00, 0x00, 0x00, 0x00, 0x00, 0x00,
  0x00, 0x00, 0x00, 0x00, 0x00, 0x00, 0x00, 0x00, 0x00, 0x00, 0x00, 0x00,
  0x00, 0x00, 0x00, 0x00, 0x00, 0x00, 0x00, 0x00, 0x00, 0x00, 0x00, 0x00,
  0x00, 0x00, 0x00, 0x00, 0x00, 0x00, 0x00, 0x00, 0x00, 0x00, 0x00, 0x00,
  0x00, 0x00, 0x00, 0x00, 0x00, 0x00, 0x00, 0x00, 0x00, 0x00, 0x00, 0x00,
  0x00, 0x00, 0x00, 0x00, 0x00, 0x00, 0x00, 0x00, 0x00, 0x00, 0x00, 0x00,
  0x00, 0x00, 0x00, 0x00, 0x00, 0x00, 0x00, 0x00, 0x00, 0x00, 0x00, 0x00,
  0x00, 0x00, 0x00, 0x00, 0x00, 0x00, 0x00, 0x00, 0x00, 0x00, 0x00, 0x00,
  0x00, 0x00, 0x00, 0x00, 0x00, 0x00, 0x00, 0x00, 0x00, 0x00, 0x00, 0x00,
  0x00, 0x00, 0x00, 0x00, 0x00, 0x00, 0x00, 0x00, 0x00, 0x00, 0x00, 0x00,
  0x00, 0x00, 0x00, 0x00, 0x00, 0x00, 0x00, 0x00, 0x00, 0x00, 0x00, 0x00,
  0x00, 0x00, 0x00, 0x00, 0x00, 0x00, 0x00, 0x00, 0x00, 0x00, 0x00, 0x00,
  0x00, 0x00, 0x00, 0x00, 0x00, 0x00, 0x00, 0x00, 0x00, 0x00, 0x00, 0x00,
  0x00, 0x00, 0x00, 0x00, 0x00, 0x00, 0x00, 0x00, 0x00, 0x00, 0x00, 0x00,
  0x00, 0x00, 0x00, 0x00, 0x00, 0x00, 0x00, 0x00, 0x00, 0x00, 0x00, 0x00,
  0x00, 0x00, 0x00, 0x00, 0x00, 0x00, 0x00, 0x00, 0x00, 0x00, 0x00, 0x00,
  0x00, 0x00, 0x00, 0x00, 0x00, 0x00, 0x00, 0x00, 0x00, 0x00, 0x00, 0x00,
  0x00, 0x00, 0x00, 0x00, 0x00, 0x00, 0x00, 0x00, 0x00, 0x00, 0x00, 0x00,
  0x00, 0x00, 0x00, 0x00, 0x00, 0x00, 0x00, 0x00, 0x00, 0x00, 0x00, 0x00,
  0x00, 0x00, 0x00, 0x00, 0x20, 0x00, 0x00, 0x00, 0xef, 0xeb, 0x20, 0x3a,
  0xe0, 0xc8, 0x2c, 0x3b, 0x23, 0x6e, 0x18, 0x3b, 0x6f, 0x67, 0x23, 0x3b,
  0xa7, 0x8f, 0x30, 0x3a, 0x37, 0x69, 0x17, 0x3b, 0xae, 0x43, 0x27, 0x3b,
  0x16, 0xa7, 0x26, 0x3b, 0xfc, 0x21, 0x19, 0x3a, 0xc7, 0x1f, 0x2a, 0x3a,
  0x8c, 0xd7, 0x2a, 0x3b, 0x3d, 0x4f, 0x33, 0x3b, 0xde, 0x0e, 0x0a, 0x3b,
  0xef, 0x78, 0x36, 0x3a, 0x47, 0x02, 0x2d, 0x3a, 0x4c, 0x44, 0x1d, 0x3a,
  0x01, 0xca, 0x37, 0x3b, 0x33, 0xe9, 0x2a, 0x3a, 0x59, 0x5c, 0x15, 0x3b,
  0xa7, 0x4f, 0x3b, 0x3b, 0xab, 0x5a, 0x7e, 0x3a, 0x5f, 0xf0, 0x22, 0x3b,
  0x8c, 0x87, 0x59, 0x3a, 0x6c, 0x63, 0x2a, 0x3b, 0xcf, 0xfa, 0x19, 0x3a,
  0xa0, 0x8d, 0x31, 0x3b, 0xec, 0xfc, 0x2e, 0x3a, 0xec, 0x3b, 0x2e, 0x3b,
  0x2c, 0xf3, 0x3a, 0x3b, 0xf9, 0xae, 0x31, 0x3a, 0x66, 0x66, 0xad, 0x3a,
  0x92, 0xb1, 0xb4, 0x3a, 0x12, 0x00, 0x00, 0x00, 0x74, 0x66, 0x6c, 0x2e,
  0x70, 0x73, 0x65, 0x75, 0x64, 0x6f, 0x5f, 0x71, 0x63, 0x6f, 0x6e, 0x73,
  0x74, 0x33, 0x00, 0x00, 0x02, 0x00, 0x00, 0x00, 0x20, 0x00, 0x00, 0x00,
  0x00, 0x01, 0x00, 0x00, 0xda, 0xfc, 0xff, 0xff, 0x00, 0x00, 0x00, 0x01,
  0x14, 0x00, 0x00, 0x00, 0xa4, 0x01, 0x00, 0x00, 0x06, 0x00, 0x00, 0x00,
  0x00, 0x00, 0x00, 0x02, 0xb0, 0x01, 0x00, 0x00, 0xc4, 0xfc, 0xff, 0xff,
  0x08, 0x00, 0x00, 0x00, 0x08, 0x01, 0x00, 0x00, 0x20, 0x00, 0x00, 0x00,
  0x00, 0x00, 0x00, 0x00, 0x00, 0x00, 0x00, 0x00, 0x00, 0x00, 0x00, 0x00,
  0x00, 0x00, 0x00, 0x00, 0x00, 0x00, 0x00, 0x00, 0x00, 0x00, 0x00, 0x00,
  0x00, 0x00, 0x00, 0x00, 0x00, 0x00, 0x00, 0x00, 0x00, 0x00, 0x00, 0x00,
  0x00, 0x00, 0x00, 0x00, 0x00, 0x00, 0x00, 0x00, 0x00, 0x00, 0x00, 0x00,
  0x00, 0x00, 0x00, 0x00, 0x00, 0x00, 0x00, 0x00, 0x00, 0x00, 0x00, 0x00,
  0x00, 0x00, 0x00, 0x00, 0x00, 0x00, 0x00, 0x00, 0x00, 0x00, 0x00, 0x00,
  0x00, 0x00, 0x00, 0x00, 0x00, 0x00, 0x00, 0x00, 0x00, 0x00, 0x00, 0x00,
  0x00, 0x00, 0x00, 0x00, 0x00, 0x00, 0x00, 0x00, 0x00, 0x00, 0x00, 0x00,
  0x00, 0x00, 0x00, 0x00, 0x00, 0x00, 0x00, 0x00, 0x00, 0x00, 0x00, 0x00,
  0x00, 0x00, 0x00, 0x00, 0x00, 0x00, 0x00, 0x00, 0x00, 0x00, 0x00, 0x00,
  0x00, 0x00, 0x00, 0x00, 0x00, 0x00, 0x00, 0x00, 0x00, 0x00, 0x00, 0x00,
  0x00, 0x00, 0x00, 0x00, 0x00, 0x00, 0x00, 0x00, 0x00, 0x00, 0x00, 0x00,
  0x00, 0x00, 0x00, 0x00, 0x00, 0x00, 0x00, 0x00, 0x00, 0x00, 0x00, 0x00,
  0x00, 0x00, 0x00, 0x00, 0x00, 0x00, 0x00, 0x00, 0x00, 0x00, 0x00, 0x00,
  0x00, 0x00, 0x00, 0x00, 0x00, 0x00, 0x00, 0x00, 0x00, 0x00, 0x00, 0x00,
  0x00, 0x00, 0x00, 0x00, 0x00, 0x00, 0x00, 0x00, 0x00, 0x00, 0x00, 0x00,
  0x00, 0x00, 0x00, 0x00, 0x00, 0x00, 0x00, 0x00, 0x00, 0x00, 0x00, 0x00,
  0x00, 0x00, 0x00, 0x00, 0x00, 0x00, 0x00, 0x00, 0x00, 0x00, 0x00, 0x00,
  0x00, 0x00, 0x00, 0x00, 0x00, 0x00, 0x00, 0x00, 0x00, 0x00, 0x00, 0x00,
  0x00, 0x00, 0x00, 0x00, 0x00, 0x00, 0x00, 0x00, 0x00, 0x00, 0x00, 0x00,
  0x00, 0x00, 0x00, 0x00, 0x00, 0x00, 0x00, 0x00, 0x00, 0x00, 0x00, 0x00,
  0x00, 0x00, 0x00, 0x00, 0x20, 0x00, 0x00, 0x00, 0x0f, 0x95, 0xc9, 0x36,
  0x5b, 0x71, 0xd8, 0x37, 0x00, 0xf2, 0xbe, 0x37, 0x22, 0xb1, 0xcc, 0x37,
  0x6a, 0x2c, 0xdd, 0x36, 0x27, 0xab, 0xbd, 0x37, 0x15, 0x87, 0xd1, 0x37,
  0xec, 0xc2, 0xd0, 0x37, 0x4b, 0xd3, 0xbf, 0x36, 0x2a, 0x1c, 0xd5, 0x36,
  0x5e, 0x02, 0xd6, 0x37, 0xc7, 0x9d, 0xe0, 0x37, 0x14, 0xf1, 0xac, 0x37,
  0x0f, 0x94, 0xe4, 0x36, 0x43, 0xb9, 0xd8, 0x36, 0x03, 0x01, 0xc5, 0x36,
  0x4d, 0x3a, 0xe6, 0x37, 0x7b, 0x18, 0xd6, 0x36, 0xaa, 0x19, 0xbb, 0x37,
  0xc5, 0xa3, 0xea, 0x37, 0xb7, 0x4f, 0x1f, 0x37, 0xfd, 0x1b, 0xcc, 0x37,
  0x29, 0x3f, 0x08, 0x37, 0xe6, 0x70, 0xd5, 0x37, 0xe7, 0xe2, 0xc0, 0x36,
  0x8f, 0x6a, 0xde, 0x37, 0xec, 0x33, 0xdb, 0x36, 0x28, 0x42, 0xda, 0x37,
  0xec, 0x2f, 0xea, 0x37, 0x55, 0x94, 0xde, 0x36, 0xae, 0x36, 0x59, 0x37,
  0xa3, 0x59, 0x62, 0x37, 0x12, 0x00, 0x00, 0x00, 0x74, 0x66, 0x6c, 0x2e,
  0x70, 0x73, 0x65, 0x75, 0x64, 0x6f, 0x5f, 0x71, 0x63, 0x6f, 0x6e, 0x73,
  0x74, 0x32, 0x00, 0x00, 0x01, 0x00, 0x00, 0x00, 0x20, 0x00, 0x00, 0x00,
  0xaa, 0xfe, 0xff, 0xff, 0x00, 0x00, 0x00, 0x01, 0x14, 0x00, 0x00, 0x00,
  0x40, 0x00, 0x00, 0x00, 0x05, 0x00, 0x00, 0x00, 0x00, 0x00, 0x00, 0x09,
  0x4c, 0x00, 0x00, 0x00, 0x94, 0xfe, 0xff, 0xff, 0x08, 0x00, 0x00, 0x00,
  0x1c, 0x00, 0x00, 0x00, 0x02, 0x00, 0x00, 0x00, 0x00, 0x00, 0x00, 0x00,
  0x00, 0x00, 0x00, 0x00, 0x00, 0x00, 0x00, 0x00, 0x00, 0x00, 0x00, 0x00,
  0x00, 0x00, 0x00, 0x00, 0x02, 0x00, 0x00, 0x00, 0xee, 0x0b, 0x20, 0x3b,
  0x98, 0xb9, 0x3e, 0x3b, 0x12, 0x00, 0x00, 0x00, 0x74, 0x66, 0x6c, 0x2e,
  0x70, 0x73, 0x65, 0x75, 0x64, 0x6f, 0x5f, 0x71, 0x63, 0x6f, 0x6e, 0x73,
  0x74, 0x31, 0x00, 0x00, 0x02, 0x00, 0x00, 0x00, 0x02, 0x00, 0x00, 0x00,
  0x20, 0x00, 0x00, 0x00, 0x1a, 0xff, 0xff, 0xff, 0x00, 0x00, 0x00, 0x01,
  0x14, 0x00, 0x00, 0x00, 0x3c, 0x00, 0x00, 0x00, 0x04, 0x00, 0x00, 0x00,
  0x00, 0x00, 0x00, 0x02, 0x48, 0x00, 0x00, 0x00, 0x04, 0xff, 0xff, 0xff,
  0x08, 0x00, 0x00, 0x00, 0x18, 0x00, 0x00, 0x00, 0x02, 0x00, 0x00, 0x00,
  0x00, 0x00, 0x00, 0x00, 0x00, 0x00, 0x00, 0x00, 0x00, 0x00, 0x00, 0x00,
  0x00, 0x00, 0x00, 0x00, 0x02, 0x00, 0x00, 0x00, 0xd6, 0x08, 0x45, 0x38,
  0x89, 0xcd, 0x6a, 0x38, 0x11, 0x00, 0x00, 0x00, 0x74, 0x66, 0x6c, 0x2e,
  0x70, 0x73, 0x65, 0x75, 0x64, 0x6f, 0x5f, 0x71, 0x63, 0x6f, 0x6e, 0x73,
  0x74, 0x00, 0x00, 0x00, 0x01, 0x00, 0x00, 0x00, 0x02, 0x00, 0x00, 0x00,
  0x82, 0xff, 0xff, 0xff, 0x00, 0x00, 0x00, 0x01, 0x14, 0x00, 0x00, 0x00,
  0x14, 0x00, 0x00, 0x00, 0x03, 0x00, 0x00, 0x00, 0x00, 0x00, 0x00, 0x02,
  0x1c, 0x00, 0x00, 0x00, 0xc4, 0xff, 0xff, 0xff, 0x0f, 0x00, 0x00, 0x00,
  0x61, 0x72, 0x69, 0x74, 0x68, 0x2e, 0x63, 0x6f, 0x6e, 0x73, 0x74, 0x61,
  0x6e, 0x74, 0x31, 0x00, 0x01, 0x00, 0x00, 0x00, 0x02, 0x00, 0x00, 0x00,
  0xbe, 0xff, 0xff, 0xff, 0x00, 0x00, 0x00, 0x01, 0x18, 0x00, 0x00, 0x00,
  0x18, 0x00, 0x00, 0x00, 0x02, 0x00, 0x00, 0x00, 0x00, 0x00, 0x00, 0x02,
  0x20, 0x00, 0x00, 0x00, 0x04, 0x00, 0x04, 0x00, 0x04, 0x00, 0x00, 0x00,
  0x0e, 0x00, 0x00, 0x00, 0x61, 0x72, 0x69, 0x74, 0x68, 0x2e, 0x63, 0x6f,
  0x6e, 0x73, 0x74, 0x61, 0x6e, 0x74, 0x00, 0x00, 0x01, 0x00, 0x00, 0x00,
  0x04, 0x00, 0x00, 0x00, 0x00, 0x00, 0x16, 0x00, 0x1c, 0x00, 0x18, 0x00,
  0x17, 0x00, 0x10, 0x00, 0x0c, 0x00, 0x08, 0x00, 0x00, 0x00, 0x00, 0x00,
  0x00, 0x00, 0x07, 0x00, 0x16, 0x00, 0x00, 0x00, 0x00, 0x00, 0x00, 0x01,
  0x20, 0x00, 0x00, 0x00, 0x3c, 0x00, 0x00, 0x00, 0x01, 0x00, 0x00, 0x00,
  0x00, 0x00, 0x00, 0x03, 0x4c, 0x00, 0x00, 0x00, 0x0c, 0x00, 0x0c, 0x00,
  0x00, 0x00, 0x00, 0x00, 0x08, 0x00, 0x04, 0x00, 0x0c, 0x00, 0x00, 0x00,
  0x08, 0x00, 0x00, 0x00, 0x10, 0x00, 0x00, 0x00, 0x01, 0x00, 0x00, 0x00,
  0x81, 0x00, 0x00, 0x00, 0x00, 0x00, 0x00, 0x00, 0x01, 0x00, 0x00, 0x00,
  0x32, 0x9a, 0x83, 0x3c, 0x17, 0x00, 0x00, 0x00, 0x73, 0x65, 0x72, 0x76,
  0x69, 0x6e, 0x67, 0x5f, 0x64, 0x65, 0x66, 0x61, 0x75, 0x6c, 0x74, 0x5f,
  0x69, 0x6e, 0x70, 0x75, 0x74, 0x3a, 0x30, 0x00, 0x04, 0x00, 0x00, 0x00,
  0x01, 0x00, 0x00, 0x00, 0x10, 0x00, 0x00, 0x00, 0x10, 0x00, 0x00, 0x00,
  0x03, 0x00, 0x00, 0x00, 0x07, 0x00, 0x00, 0x00, 0x90, 0x00, 0x00, 0x00,
  0x70, 0x00, 0x00, 0x00, 0x50, 0x00, 0x00, 0x00, 0x3c, 0x00, 0x00, 0x00,
  0x2c, 0x00, 0x00, 0x00, 0x18, 0x00, 0x00, 0x00, 0x04, 0x00, 0x00, 0x00,
  0xb4, 0xff, 0xff, 0xff, 0x19, 0x00, 0x00, 0x00, 0x02, 0x00, 0x00, 0x00,
  0x00, 0x00, 0x00, 0x19, 0xc4, 0xff, 0xff, 0xff, 0x09, 0x00, 0x00, 0x00,
  0x04, 0x00, 0x00, 0x00, 0x00, 0x00, 0x00, 0x09, 0xb8, 0xff, 0xff, 0xff,
  0x16, 0x00, 0x00, 0x00, 0x00, 0x00, 0x00, 0x16, 0xe0, 0xff, 0xff, 0xff,
  0x27, 0x00, 0x00, 0x00, 0x02, 0x00, 0x00, 0x00, 0x00, 0x00, 0x00, 0x27,
  0xf0, 0xff, 0xff, 0xff, 0x11, 0x00, 0x00, 0x00, 0x02, 0x00, 0x00, 0x00,
  0x00, 0x00, 0x00, 0x11, 0x0c, 0x00, 0x10, 0x00, 0x0f, 0x00, 0x00, 0x00,
  0x08, 0x00, 0x04, 0x00, 0x0c, 0x00, 0x00, 0x00, 0x03, 0x00, 0x00, 0x00,
  0x03, 0x00, 0x00, 0x00, 0x00, 0x00, 0x00, 0x03, 0x0c, 0x00, 0x0c, 0x00,
  0x0b, 0x00, 0x00, 0x00, 0x00, 0x00, 0x04, 0x00, 0x0c, 0x00, 0x00, 0x00,
  0x72, 0x00, 0x00, 0x00, 0x00, 0x00, 0x00, 0x72
};
unsigned int bottle_can_simple_cnn_mps_tflite_len = 15488;
